3EAE2D15
BDD84DC7
3E90F261
3E98CD21
3ED2C373
BE9ADA8B
BE28BB5B
3E895564
BE638F07
3D5D0FA6
BCB929B8
3E03F6BC
BE0A7272
3C5C79E9
3EE78E92
3ED517AE
3E0AF802
3E5E8314
BEB77FDD
3DDB1283
BEF7A773
BE83A457
BEB9BCC8
3E9BBD10
BEAFC7C2
BDCADDAA
BEBD8C1D
BEC84A37
3EFF7308
BE9040A2
3C53E26B
3EADA01D
3DE6B201
BE50D9AF
3E0CE57E
3CC835FA
BBB58B68
3EF27092
BE52BBC4
3E8C4A01
3CE8C94D
3E8AD9BE
BDC891FD
3ECA0CA4
BE555E1B
BE160AC1
3E9D9B80
3ED73F3F
BEDBD04A
3EE61D90
3CD6EA27
BED3E06D
BE9D9627
3E2724F4
3EC7CC91
BE1ABBD2
BEDF24F0
BEF5BF8C
BD2D3FEF
BEDFAF9D
BE85FA55
3EF0F928
3ECDF546
3EB42A45
BE6CAB46
3D2B4726
BDF0526B
3E8B7190
3CAFFC47
3E38DAF8
3D509CD1
BEDC923D
BD1263E6
3EE08CD0
3EDD9A3B
3E60DB78
BE5F6336
3E712C57
3E0E1042
BE15E523
3E405F8D
BEAAF9F3
BD7554FC
3EC29937
3EA88D0C
BE2DBC1C
BE8ADBFF
3EC96858
BE198FCC
3E3F5665
3EEA30E5
3DBAD7E5
3E29DAD9
3EC02720
BD01E6C0
3EF0EED7
BD6F7DED
3EC0170E
3E865B10
3EF485CC
3D5E1006
BE71F087
3EF3DA7D
3ED97508
BEB50922
3EBEA5B9
3E06B59F
BD8D156A
3DFC58D4
BE5E516E
3E93FE53
BE4529C2
BD58F34C
BE8C3B4C
BEA04FA0
BE657AD0
3D64057E
BDB028F2
BEA8261A
3ED42BE9
BEC1FD08
BEAB0E54
3D87C1BE
3EB80863
3F18BEBE
3F10C7FA
3EA4FA08
BCD707EF
3EA01BEE
BD250B52
BDF9F0D7
BE973B8D
3B8C7417
BEA5C0A2
BEC7639E
3E6364FB
BEB51311
3E9C1605
BEAC5249
3E7B0977
BED9D73B
3EE67408
BEE53184
3CB4D9FC
BEA4EE07
BE841451
3EA48DE6
3E8B9BEA
3E54361F
3F062E61
3E77472A
3ED66A95
BE444149
BE1245E8
3E522687
BE4C3C5C
BD912A7A
BC5881A1
3D71C9C1
3E916FF5
3B40A64E
3E3B85DB
BEED67C1
BEABB96E
3F0024F0
BE942614
3EC903F5
BEBFFD10
3EFEDF83
BEE451E8
3EBDBE75
BEDA1FE5
BEF784C4
3EE84AC7
3E19FAA5
BE6E4C51
BE80BB47
3A45C2ED
3EF04648
3EC230A2
3D162322
3E166293
BC830B18
BD56B0E7
3ECDD272
BE6169B5
3DA9315F
3E969C99
BE6F04C3
3ED8BEC6
3D8919FD
3ECB08D0
3E8B54DF
3E176BC2
BEE760C9
3E7EB3B5
3EAA9E51
3ED9DF26
3EC136DA
3EAB8353
3F0321BA
3E9B2D18
3EF1BA76
3F102B52
3E7BA422
3D8BD464
BEA9967E
3EB33468
3EABFBFD
BEEF9B2B
3B87B642
BEC4C316
3E058DA2
BE26DAA2
3E65BA47
BE53BB41
BE85589A
BEBCB7FC
BEED112E
3E2D2927
BE4CA673
3E545D4F
3CEAD2A7
3EF22AAF
BE5FCD25
3D43414E
3E692FDA
BEBC16F7
3CDD5C31
3E349555
3F0223E3
BB5C3F31
BDF77B97
3ECEC99C
3C7220AF
BEE1790E
BD6E0745
3E247B03
3E73086B
BEE4A72B
BCE1FDB6
BBD1DB2A
3CB8E98B
BE0A3B30
3E57A42C
BEC063D3
3DB33B10
BEC1D306
3C34A87E
3E7FFDFB
3E41E4FE
3E0D4307
BE1C770D
BEA07C27
3DEFFBB3
3E14A991
3E9D0EAA
BD8A4441
3E9C03C6
BE8E55CE
3EDB131A
3E739F3B
3E46FDFF
BE2356CD
3E3E04F6
BEB28D9E
BE9DCADF
3E01441D
BD1921DA
BEBEB3D3
BE814881
BDD8B6F3
B9C67ED5
3D4B8A93
3E133A91
BDED63B1
3EB39C69
BE2A906F
BE227AF7
BE9E4544
3EF81363
BEFD18C5
3EAB9083
BE173CE3
BE72C966
3D00AF38
3EF93804
3EBF2519
3E56D784
3EAD32EB
BE8489C5
3E812BBC
3D23E4FC
3EB0F9B1
3EB31EB0
3E6AABC7
3E0D5BAB
BE703E3C
3EB000F2
3CD35364
BEA6C548
3EAF29A2
3ECCAFED
3EDEA055
3D4E737B
3DD3E807
BEA79848
BE6785B6
3EBABAF1
BB7A64B6
BCC1D8B3
3EB92634
3D06781F
BE396AA0
BEB15B90
3DA4C7E6
3E0E0D2B
BE68B411
3E1C81B9
3CE40C4F
3EF75471
3E96898E
BEE630BD
BF09EC78
BE8DAF4B
BEDF9516
BECD25A4
BE8ABF7D
BEC8E74A
3E9914A4
3EBCFCA1
3E088C7C
3EB642EF
3EA8DDD7
B9E0C324
BE28DF2A
BDD7DDD8
3E24D904
3DF4FAE9
BE78A5FD
BEBFBFB2
BEEFA86E
BEEAA48B
3D3BC035
BDFCAB09
BDF75211
BDF6CC45
BE9530AA
3DC727A7
3F058D33
BD446215
BEEB4C2F
3BBAFF45
3E269C60
BD998F96
BF116E68
3E341758
3D229018
3C7B7704
BE892374
3DCCBD7E
BD5FEE98
3EAB3384
BDD7F166
BE82E5E1
BE312CDD
3E6FB854
3E00B07A
3ED714F6
BE59ED8A
3EC073C7
BECC4AE2
BBF7F8CB
BEAEE0F4
3EB44F71
3EEE06E0
3C035448
BEA62EB2
3E334D49
3D97A1B5
BEFB0948
BDA9C462
3EDEA6FE
3CDFFED9
BEC381CA
3ADB778A
3EEC554A
BE91A258
BE9E8174
BDA4CDD3
BE3E9C16
3E20D929
3E9E5489
BEBCF935
BEE433C3
BEEAC7B9
BD8E9277
3E92B7DC
3E4AF20F
BCE5A683
BE669051
3E9A846A
3E559A88
3E73FA09
3E88A813
BDEAE4BE
BE9ADC2E
3EA1DDDD
BCCD0F7D
BE9779F7
3D985A5C
BCD6F3CD
3E0FEDCF
3E5C45D9
BE14F858
3EE421DB
BEA89423
BEB8DA83
3EE23B2C
BEA91ED0
BC954145
BE8D6A77
3EA96AE3
BE4B68A0
BE09761B
3EE7C1D8
BDAEE683
3EB65853
3E9783CC
BE4FEB07
BE29E1B1
3E71C04B
3D54999A
3E5F8191
BE858CF7
BE9083D8
BE8CDDEB
3E00919F
BEC952B4
3E35F366
3EBD7EB8
3EB16342
BE55372E
3B2FA2F0
BDA5DCB9
BBFE79EE
BE7B35A3
BDE3AA29
3D0689BD
BEB11BBB
3D6BF049
BEEE28E3
BDC581F8
BCA4458F
BBB8FB5F
3EBCEC8C
BE41B8E6
3E74B9E0
BBE707E1
3E74815B
BC66687F
3DF5BDD7
3E353812
BDCBC25B
3E0E2486
BEF52F1B
3D4F137E
3EEEAE95
3EA27E1C
3EA462D1
3E355EFF
3D6CA403
BC4833E1
3E8BD8A0
3EA2830D
3E36D11E
BEB1BA43
BEEF5A13
BEDC5CBC
3E4B4B29
BE97CA78
3E64AB67
3EE7217E
3E8EE756
BEBA4A82
BED8FAA6
BE677E1C
BEB50DA8
BDDCC774
3DD00D79
BE954E82
BD9024B3
3E61EA4A
3EAB5AFE
3E4D2CA4
BD13E49E
3F0E5B3F
BE1B4077
BE37BC65
3E1244F7
3EDE400C
3E5A330F
3ED29087
BE9CDFA3
BDD85696
3E5301FF
3EBE1DE4
3D74B7CD
3E88DC1F
3F09F1DA
BD0BBAB4
3F2C0EC6
3E659E55
3F005503
BC25CB00
BDA226D1
3E8F6F8F
3E36A2E0
3E9080D1
3DF4949F
3E5B8A56
3ED4D20E
3EF513E8
BC259B30
3F097575
3E67196B
3E907E21
3ECB8E1D
3EBE85BD
3EA86A89
BE728262
3DD57463
BCF1253C
BEAA3B22
3E9721CF
3EBDF0AC
3EC85A31
3E7BA99C
3D96DFD3
3E88EEFF
3E7C0867
3E96B6FC
3E137B5E
BEA988CF
3CF04E11
BEF6EF29
3E3B751A
3E1D3F7D
3EF87955
3D70D464
BE85F263
3E358630
3E308D09
BEA922B8
3ECA414B
BCFD23AD
3E4177CF
BD000559
BEB4BB40
BDB376E3
BE8184F5
BDBC92B5
BEF58D2D
3E63121E
3DB40449
3EB377BD
3E2CA1A7
3CBC61B0
3AE80CC4
3F21477D
BE6A65FE
BE751DE2
3E2AE9FC
3CD9F001
BE84F0CE
BD03FFD4
3EB2D469
3F141EC7
3EE9556E
3E2300E5
3DB14C30
3EE584F8
3EFFA197
3EF8E4D3
3ED06AD3
3E89E12E
BE29C64C
3D168888
BE8FCDF5
BCB7EEEF
3EE77418
BCBA3154
3ECB239E
3EF1EF77
BE968C5C
BD8CC609
3E6B9778
3EACD9D7
3F085E87
BD98D7E0
3E622559
3EE601E2
BD88481E
3E2CA2F0
3EB6F2DF
3E94FBEC
3ECE3C28
BD9B3073
3DF1F37D
BD55CF90
3E5AADED
3EE2C588
BE9393E8
3DD92FCC
3EBD4A4A
BEC7CB34
BE017BAA
BE9A1D36
3E1BF1D5
3DD670D5
3E396136
3D8756D7
BEFAE9E4
BCA75F55
BCE689D8
BE86F5ED
BECD3587
BD52045F
BEEA7151
3F0ACA4E
3E86A6EA
3F1E93AA
3F416739
3F356F3D
BD2AE02E
3E3A9F24
3E18B61D
3ED294BC
3E61B1C5
3EF958AE
BEACFDC1
BE4ED8A4
3EC403F9
BE092FE7
3ECC8242
3E7D94C3
BCA1BE2B
BE6048F4
3ED9D5DB
BEE67A27
3E87401C
3AF80A68
3DAD4E17
3EB36F7B
BEB4346A
BE4D7FB7
BE923140
BE1B0688
3EC5D7F7
3DDDAE9C
3D169172
BC8B1613
3F253994
BEA0D5FA
BE6CB50D
BEA4CE88
BC987577
3E179D4E
3ED59E91
BECA51A7
3DE6D8DA
BEDBDFF4
BDD99BA5
BB69E5E2
BD796D09
BE53D004
BE92707E
3EA00CA3
BD5D1C56
BEC68E96
BEFE036D
BCF7C0CC
3EB58B90
3EA789FF
BACC6ED9
3F38BCCD
BE273CC8
3EA4C11F
BC5B75DD
3E8021E5
3E32A8FF
BE33F9E8
3EB2C82E
3DB5A343
BE3CB86E
BEEC0644
3E8BAF6B
3E9EB947
3E4D5977
3E3A49AF
3ECEF19D
BE3F8CBC
3E8159EA
BE4F707A
3E98252F
BEB8C74C
3D31B047
BEF6C768
BEDB599E
BEB1489C
BE533F13
BEAB5C11
3D861EF1
BED14266
3ED2A712
3EE164CB
BEF53067
3E9807DA
BE4C55AF
BEC6C3A5
BD7636F4
BEDD1304
3D6593A3
BCF27FAF
3EA1120F
3EDAF461
3CE9449D
3DA872BE
3E6AE73B
BE8CADEB
BE717CEC
3E08AA14
3D03801D
BEFF1C65
3ECF616E
BE49D911
BEBE81AD
BDAB4A08
BE340BDD
BE898312
3D8D4BAD
3D496CFC
BE21B0BF
BE957188
3E00DD83
BE8DB2E9
BEC8BAAC
3E464A67
BE9DBAF9
3E0D5886
BEFD02BC
3EAFF515
3EB46B31
3DCE5A1B
BE36CE9A
3E2BFDC2
3CDBCB02
3EB22D12
BE7FC8DF
BE799F65
BEDA803C
3C6C27DC
3EC6C1ED
3DD14644
3CB830C9
3EA348F2
3EE774EB
3E6A3967
BE2D9296
BE121160
BEF3107B
BEF62992
BEFCA31E
BC6A3A30
BE6102F9
3E4D8BE0
3EA10105
3939E99B
BD211219
BED80110
BE9E3769
BC85F3CA
3ED8C55E
BEE9C82B
BED4C815
BE82A1EF
3E586D6B
3DE3D26D
BED074DD
3EEC5246
3EBC24E9
BEAAF5B7
BCC509F5
3E83BA71
3E8E1523
BEFC6D1B
3DA0FBC3
3E721CC0
3E799151
3ED85B51
BECEA41F
3E9345DD
3EE49328
BECC0AC6
BE668188
BE8577BE
3E9E969C
BECF5690
3E7CA6DE
BE64221E
BEA74525
3EE01C09
3E858FB4
BECE7FC7
3EF653DE
3EB0C79F
BE224371
3E45150C
BD321FD8
BD865E6E
3E1CF88D
BE34854A
3DCD9C86
BEBD7B63
BED73333
BDFE3B6F
BEB8453B
3E2BD4FF
BEC52E76
3EC2DA6D
3DA8D251
BE943994
3E2C0BAE
3CEC84F9
BE40298D
3EE2EDD6
3E89523F
BEC17DEB
BEEC688E
3C74B620
BDCE3BDB
BE93ADB0
BD41F1C2
BEAE01A8
BE445939
BD87A48A
BEFD3BF6
3E18944B
BEC2E03F
BD5F8E20
BEDE1ECF
3E843496
3E8A4137
3E279C12
3EC1A4CB
3EB3A48D
BEE42C04
BEEDB1C5
3C968EB8
BEA47468
3EDA315B
BECBC647
BDEE1199
3DC48D99
3E0E1A3F
3E4D1585
3D216FF2
BDBF4095
3EA51502
3D9F15CD
3ED80B85
BE8E78F9
3E94C7C4
BDFFBA52
BDF3C02E
BECFF59B
3E972A14
BE21A474
3E2B4DBB
3EA8D816
3E8C1528
3E3EAFB2
3D9BB64C
3D517DBC
BD878C87
3D48DF6D
BD19C107
3D7F0BAF
3E3772A7
BEF28B78
3E7F1B2D
3DAA137F
BEC20DF4
BEB7FE56
BE9CA478
3E8E08B6
3EB045A0
3E70F93F
BEA110BF
3E2D6E34
BE2F8D57
BEB7DF8F
3ED5EF4B
BEBB4BF2
3C904C13
BE4E02C2
BE649584
BE10CCC9
3E67D66D
3ED5D412
BE8DAE85
3CE6E115
3E7BA6E9
3EABFAC2
BE9C5C9A
BE23EF94
BC7E21D9
3DCDB835
3EB05F2F
BE913A1D
3E46FA8A
3E09F3AC
3EA92DB7
3E9FB4A2
3E8BEE18
BEF16EAD
3DB99334
3DF9FFD6
3E975826
3EBC7D01
BDF98923
BEB9AAED
3EE2B5C0
BE3E543C
BE25DE4B
BCF4A5C4
BD065D2C
BD05D70F
3E7795D5
BE8DB926
BD008F57
3EC45180
3E28751A
BE85928C
3EAFE715
3E4D53E9
BDD5A101
BDE4E46B
BD92EC36
BE5B5FE5
3DD8EE51
BEDC51CD
3ECD97C7
BD8AD942
3EC57148
3E49E746
3D3429B8
3DB11E1B
BE1643F4
BE8AABBD
BE2AA92E
3E5159AA
BDC239D9
BE89710F
3E8CE937
3C4DA24A
BC9BA253
BEB8421D
3ECD61C3
BE745E55
BD77576A
BE76A466
BEDD32C6
3EB4558D
BE83CF19
3EAE7826
3E6842E6
3E7E41DB
BE9508C7
BEE69252
3EEB5FBA
3E8CF95A
BEC52C10
3EC34250
BE4651FB
3F1C30BD
3DDA1DAB
3E20C32B
BDCE6DFA
3E9272AE
3EA8910F
3DC9ED47
BE302BDB
BEF526BA
3E11C5D3
BEC2F3BC
3E24DACC
BDA7F37F
BE0BDA87
3B62145D
BDC468F3
3DB15FDA
3E227BE2
BCDB5DBF
3E168AA8
BEC12B11
BE42D07A
BE9C5AC8
3E4600C4
BD68288E
BE860822
3E31703C
BE42870D
BD88A174
3D04A9E9
BE290279
BE8C3FBE
BF077AB8
BF15EFE2
3E46DE33
3EB79C12
3ED54CC7
BE00F55E
BEA0B288
BECB2F70
BE02012C
BDBF5D79
3E967444
3E64BB65
3EAD278B
BD9548C5
BE91890C
3E227DF4
BE5DF344
3E05070C
3EF0B0D4
BEC813A2
3EBC9187
BEAC67ED
3EA951D7
BDD4FB1F
BDD2EDFE
BDE16E45
BDF50B7B
3DF49774
3EC48E7A
3E6F669F
BEE2EEFA
BEC3D658
BED9F55A
3E9BCEE3
3EBFD821
BED9A863
BDA58EDD
BEEDDBDF
BED8617E
3EA02CE8
3E87660B
BE9DC503
3D87E14E
3E21553C
3E1D6A88
3E05D675
3EAD88C9
3D81AC3D
BE98B5EE
3E9E2FFB
3E67FEC5
BEBB512D
3EDD811A
BE18C3BE
BEA83120
BEB6285D
3E95F6C7
3E9F6C2A
BEE35CEC
3EE1ED36
3ED15D5F
BE5B3FC8
3F142490
3EEFF852
BECF7EC7
3E42C57E
3ED1CBB5
3DA88B11
BEC7B0C4
BE9A1E1A
BE6FE762
3E8097E0
BDBDDBF6
3E8A031A
BEED228F
3E63273F
BE197035
3EC00199
BE30760B
3DC98450
3DBE41F0
3E8AA3FE
BE26292A
BE21CAE9
BE650EA0
BF04F5B2
3EF9E00A
BBF12A7A
3F26A480
BD4D64F3
3D1B5F87
3ED20419
BDFF5283
BE604D1F
3E901114
BDE2A71C
BF176E0F
BD4A8793
3E374C39
BF0DD69F
3EDFE9E7
BEA10137
3E0E9F71
BEB41890
3EDA191B
3E368B85
3EC6139D
BE5ABA38
BD7FCD5B
BF1595D5
3C8FD0C3
BF078CCF
BF00EA4E
BB9905F6
3EE63903
3E7ED26E
3E2F0D98
3F293051
3F203028
BC3D2087
3F0917C1
BD89190B
BE00F309
BE8A7CD0
BED02DBE
3D7F4F86
BE33ECCC
BE97CC4E
3DE3C75D
3CB6303E
BDF85B33
3AF09F3A
3E47C067
BEF560BA
3E1D98FC
3DE1F927
3DCE32F1
BE715890
3DCAE155
BEDC088C
3DEA4DCC
3E333425
BC22C08A
3ECD7DDD
BE37788D
BD5B9B16
BE04C62B
3E524002
BD8167A9
3E0C9815
BE35C776
BEB2A133
BE7D4F8F
BF0690EA
BEB9784B
3E10FA6D
BEC6C87B
BEFB0AAC
BEB7392D
3E7B0D2A
3D05E5F3
3CDD31D5
BE83C258
BE9502D7
BDC81EE8
3E082A13
3D5BFDF8
BEDC9D0D
BE28AAFF
3DC2DF00
BDD44B7C
BE89F4A1
3D02755B
3EF2307A
3EC92D5C
3E216EB0
BD91F601
BCE8349D
3B85C5A7
3D5C11FF
3C944B7C
BE73AFE7
BD714262
3E9B4BA2
BAEFF419
3EE9FB8D
3E1B4A08
3E13F9F5
3EF9D544
3E9C1DEC
BDECB924
BCE5AB8B
BEC8E8A7
BE3CFB6F
BE348A81
BC7DE64A
BE60DB63
BDE5B142
BEB14AE1
3F18C086
3D2F605B
3E884F7F
BEBE1731
3E497148
BD2E8FE6
3ED9CE87
3D8DEA89
3EEED462
BE1D60F7
3E9DDB0F
BE97C826
3D4207E2
BF05D4CB
3E9BB17A
BCEC9E23
3CB9CEC3
3E9610EE
BEB75BD2
BEA176B2
3E88323D
3E73A747
BE904CC1
BF2734F3
BF59CB74
BF5AD336
BF4E39E0
BF0DE427
3E2CC349
3EC975B6
3D2B3E72
3E7C138B
3E787684
3DCDC586
3E2015CF
3E83DA8A
BD0E5CF0
3EB70DBD
BE38C0C1
BEC449C1
3E85E01E
3E9E8BE0
BE4B7CB5
BDF6BFBD
3EBC1190
BEB6E555
3EBED114
BD5A11FA
3EF66D23
3ED5841B
BE17236F
BD68A845
BD3DC6BA
BF6D76D4
BF89EC3F
BF822B71
BF3BEC00
BF0FF6F1
BE13AC3B
BEE32A72
3D1167B7
BE46A2DA
3E07715E
3D9302A7
BE127D17
3E0C4814
BCBCAE3C
3DF36C9C
BEF748A1
BDBC0478
3E1DABE2
3EBA7D03
BE30B25D
3EF8E9BE
BE6B7308
BE31C836
BE6E1A3F
BEC3B2F1
3DCCF993
BEDB030F
BEB26C8C
BEF145D8
BE23ED81
BDF174B7
BF414F1B
3DA8221B
BEAC83BE
3D1ED9AA
3E907110
BE17F448
3D73D51A
BD9EDB07
3EE6DB0E
BBF53FB3
BEA79160
BEB7784A
3E1B1F2C
BE49F312
3E67A2D6
3EA77B39
3EA2B017
BDD8FF76
3E644C67
BE3C78BB
3D3216D4
3F0E67B3
BD45634C
3E58392C
BD218571
3F320EBC
3D9F1760
BEE2EFAF
BEF64877
BD99014B
BEA4E65F
BE268307
BE8E0E73
BE332230
3EC4E538
3EB5BA22
3E3FFBBA
3E0F1BE2
BDBA520B
3D4A12C3
3E7094E6
BE07C485
3E586863
3D3F469D
3E7638A8
BD58C635
BDDA9692
3E3941DC
3EFC559A
BEA7774B
3EB4C2B5
BCFEB72B
3D5A2728
BD291786
3ED05FFC
BE849551
3F0F975C
BDA9E6AC
BE65F952
BED7F064
3E9AB481
BD8C5444
BD9D4322
3E52B48F
3DA95902
BE70F282
3DC12091
BEC5E860
3E3B27CC
BF027A78
3E8772E3
3D17CE38
BDDAED9A
BC97CB63
BED0E428
BE9C83DF
3F120423
3D0E0AF0
3E7A94C3
3ED314B6
3E96E3C9
3C9BFE99
3EE6871A
3B68E1D6
BBBC6EB1
3E89B1C2
3D8C7FA0
BCB0A40D
BECF83F4
3E747D44
BD1A856D
3E5EABD8
BED24FCE
3E7B9665
BE7E263A
BD92E4DF
BF00F91F
BEF523FA
3E8BD817
3E95A9C3
BEED4D39
3D224A27
BE2B6255
BD21D954
BECB43D9
BD9744DB
3C518AA2
3EA76076
3E8E598E
BEAA9733
3DA71C6F
BE6CE506
3D216E2A
3DD8F910
3EA40E03
BED3481B
BDF3C105
3BB05D2A
3CBFB664
3D7EC6AF
BE5BDA87
3EB45540
BF01CE65
BE9E3A37
3E4EE2CA
BD1FBE26
3EB8B274
3E9BF9B5
3C091FCF
3E0A7DF4
3DCF12DD
3D8FF2F2
BE86845D
3EF87FF0
3EF62D12
BE94B70B
BE3FF045
3D506F19
BE904FCF
BE9B5B05
3E769C9D
3EB2B5DB
3D5AFB7F
BDE84BAE
BC469652
3D41252F
BA1656EF
3EE7AA08
BEFFD509
BF0C4B95
BE104B00
BE659EF6
3EE4330A
3C00AC63
3DE9875B
3E63B6B1
3EFC78F7
BCD64B9C
3CE22C45
3C56521C
BEBAD4A5
BEA794CC
BEAC3778
BCE57463
BE76B08F
BE8AB94E
3DB5667F
BE34328E
BDB520F9
3D61BDF6
3D69A7CF
BE867360
BE1852C9
BEC1A2A5
3E32395A
BF0A7794
3E4E282B
BE4EE9A1
BEF2AC3C
3E9BF002
BE20221B
BCC83A61
BEB6DF25
BE2EC9C1
3EFF9C8B
3E83252A
BEE585A3
3EFC0ED6
BE883C44
3DB23069
3CBDB31F
BDD74A41
3E917C5F
3E0DC8E1
3E5A5FBA
3EA0F56B
3E15C521
BEA42327
BEB27B01
BEEF22B3
3DDE41FD
3E064437
BDC30E15
BEA31F36
3EE36E89
BE7C8A7A
BE709705
3E65578E
3DB89268
BE3EF37C
3D42DF93
3EE4C477
3E9666D8
3E4312E1
BE6540D3
3E9600CB
BD6171F0
BE337C13
3E8E559C
3E288E29
3EC261AB
BE835793
BF04A867
3D928721
3E8B86FF
3DBAB409
BE4B9F19
BE2A5636
3E46439D
BD365C12
BD1FCFFA
BD5B9014
BE846096
3EEF6893
3E377A19
BE9229A6
BE879955
3EE3AF50
3EE1B563
3EA6DBA8
BE778B81
BC3D3C36
3E8BA01C
BEE55EE8
BEA46050
BEE6FE32
3EB09903
3DFFB88A
BDFE355A
3E04E2CB
BE4E5831
BE60D314
3ECEBEE0
BE3EE18E
3EC3EB01
3E6740CB
3EE8E809
BE7E392E
BECAD9A3
3E462D18
3E84DB31
3DE0123F
BEAAFA61
BEF9D979
3DA3F06A
3EB012D2
BE8BDF60
3EA16E2A
3E93C21F
BEAA29FD
3E10939D
BEE803A1
3E1FD842
BDB0584A
BECD6289
3EAB8BB0
BD18B305
3EE341F5
BD213123
3EADBF60
3D978F40
3E866B1E
BEC136F5
BC8522B4
BED6A200
BEF86B3B
BE93202E
BEECD915
BE6C4C82
BE364A4C
3E70CA74
BEF12586
3EDCD856
3ECCE219
BEEB220B
3C3A8E06
3E79E9DE
BE6E02D0
BE317AD3
3D05B871
BD84ADF2
3EEF8C22
3DA29F32
BED18AFC
BDF8117C
3E308510
3ED4DDFF
3EAA673A
3DE69FB4
BDEDDA8C
3E3F97AB
BE9831B4
BEB04B97
3E9BC10F
3E344EC3
BE8B4F03
3EA345EB
3EC72F41
BE6EB5B3
BED1F9D9
BE920613
BEFE5882
BEC2E0C8
BEB52DBE
3ECE899B
BEAE02D3
3E214E06
3E16FA1E
BD943FB0
3EF7E50A
BEA4417F
3EB6BE27
3EDEC86E
3E635B19
3ECE9D84
BE4C2FC0
BDC13F4B
3EB21CB9
BEA8EFD9
BEE554FC
BE7E31CA
3EAD8684
BE86CC19
BDD5ED4A
3E1EFC74
3ED7716F
3E0EAA60
BC6A5432
3EA81FE0
3ED51F7E
3DA3C4F4
BEE948D9
3ED6C647
3E4C20E3
BE9E536F
3EA552ED
3EB823EA
3EB44282
BD212AA2
BE6E9EFF
3E9A32E4
3DDD6A4C
BED0AD00
3E817A1A
BD53F2AC
BEB07DE8
BEB9FB32
3EAF5169
3EF858EF
BE4D033F
3ED355F2
BE81B205
BEAB6658
BEB0FCF5
3E268E89
3EA567F7
BED1F601
BE3A3953
BE3DE14F
3EDCADE5
BE87F74F
3ECB1104
3EF3E554
BEB0A167
3DCE96FA
BEA5DB8B
3EFB667D
BD274320
BEE5FB07
3C28D3C9
3EA8F5DD
3EF220AB
BE8BDC56
3EDB4777
3E3222F7
3DEC745A
3F229049
3EA6B793
BDE007F8
3EEA63DB
BEEC3DDA
BE8EC81D
BE9C4681
BEB9FA3A
BDC8F04F
3ECD5242
BEEF26EB
3CF5B91F
BE8DF66D
BE1C60E7
BD202894
BD1DF549
BE770791
BD0AC04D
3E19EFFA
3EC5DCF5
3E2DF30E
3E64C539
BD1E21A4
3EB424CE
BE7D0B4C
BEB861C8
3C911F42
BEB84E5B
3EEB0B0A
BEB2DB36
3DB693B3
3E862E6F
3DFD17EE
3EB3B55B
3E7920B3
3E665B6B
BEA14A57
BEB4B3C7
BECE5DFC
3E4043B0
BEE70BBF
BEC26EEB
BE9045A3
BE55EE64
38947A76
3E582CCD
3E94CC4A
3E93E833
BE518725
3DDC956F
3E9BD56A
3EB73F3B
3EDE9BB2
3EB0665B
BE2D022C
3EEE855C
3EE719FB
3EC0FEC0
BE9B4B9B
3E8CCF40
3E8A4105
3E0E34EF
3DFF3F10
3DFD2D52
3E21E4BB
3E0C22BF
3DE0295E
3EFDC334
3E97F49C
3E508B91
3E3AB6AE
3EBC317E
3EC4DD79
3EF163FA
BE79B075
BC9741D1
3EB469E1
3F1CFADA
BEB8AC9C
3D98112C
BEE40969
BA8EAF5B
BE1BD43C
BE833E80
3DD3C991
3EA00969
BE6B6574
BC819DC5
3DDC8282
BE9913F9
BEDD529D
BDCBB8C3
3ECA396E
3EA873F9
BEB68714
3E0F3B93
BB8EAF5B
3E854D8A
3E06D6FE
BE32D6D2
3D8A6C1A
BD04D389
BE0AEF0B
3DAAE0A7
3B6D8C60
BC17FA5D
3DF4D354
3E06313D
BEE04AD4
3D4B49E0
BD74E011
BC123CAE
BE0D45D5
3EE0C3D2
3D39C5BF
3E206614
3DA64C4A
3CB59BF9
3ED4288E
BEA36D91
3E41306E
3EE1544A
3D8054E2
3D7D2B54
3E863FC9
3E45EDF2
BE9A3F40
BE44C9EB
3D95E5BD
3EF80097
3E708C6E
3F1CCDFE
BE27B13A
3E95F4B9
BEAE62D2
BEB3D912
3EB8DF12
3D89B86E
BF0B327C
BE85C2E7
3DE3D202
3E3B768B
BE0F9017
3D47A17F
3D47A398
3EDC8737
BE990EE0
BEB83212
BE6E9ECA
3EB97ECC
BEA1615F
3EB21771
3E833A3D
3E48EE0E
BDA6F9D4
3D95F2E6
3C49C398
3E729FA4
3ED3D83C
3EEC03B6
394E91C9
BE2F3CF7
3E28E4E1
BCD5A980
BF1CC989
3E1517A4
3E9BEDC5
3F30A97C
3EF454C0
3F12301A
BEBC06D8
BE7880C4
3E2197C4
3C03D8D3
3E38FF2C
3F082EE4
BEB8854D
3E0185C8
3EECC734
BE6856B1
BDC24639
BED65D69
BEB94D2F
BE95BE9D
3EC0971D
3DFB53BB
3E8994B9
BE4CFF4A
BE88318C
3CD33B7C
3EF836C0
3D76DDAD
3DB2E82D
3DA80ED0
BE8B04B2
3F2270E3
3EDCF4E2
3F1AEF15
3ED3A001
3BDE9F5D
3EF636C8
3E9D2CD6
3B8F8E7E
BDCBCA7C
BE939D87
3F10E9C9
BE709E13
BEAD6F62
3D872B02
BEA67690
BD61AC8E
3F045CD3
BE3FB982
3D6AD1B5
BED1C84A
BEAFA57B
BE9EA84E
3EC524BC
BE9C09FD
BEEEEA9D
BF087263
BED757C5
3ECB2057
BDDF1993
3F3AA0A8
3EE3DDA2
3EE14EC2
3E28822E
3EA06668
3E7EF8CF
3EDF9545
BDE981BF
BE202137
BDA8A131
3E9040C0
BD190900
BDD04D3A
BEF96CBC
3E0A7DE0
3EF86E59
BE9A90DE
BF12130D
3E805B69
BE0499C9
3D791F05
BEEC36A5
BE603651
BE1078E0
3C5C2A38
3D9C967C
3EE8E1F8
BDAFFC62
3F133CAA
3E37CDFC
BE96FCAD
3E4C58C0
BD1C754C
BEBFCEFB
BEAFCD9A
3E1C3A14
3C912232
BE989060
BE43A4D7
BEF269E6
3DC3301B
BEDDF5A4
BB30DE5A
3F018E63
BEDEDFC2
BF1121BF
3E35F747
BEF55927
BF16EF62
3E083D00
BD8976AF
3D18C17D
3E647362
BE86C354
3DB8D569
3F171896
3EF024E6
BE722F7E
3E923151
3CF40FD2
3E9221E7
BE8C6EB7
BEC14F74
3E790201
BED5A976
BD54A391
3EA356D3
3ECA1611
3E14E3F9
BEC815B5
3ED8BCBE
BE74BA01
BEA5B318
BE84082A
BEFA9FAE
BEFE5D69
BE83831D
BF0E629B
BE5D693F
3E11AE6A
BEC1885A
BD4BB052
3E526982
BE0EFA0A
BDEA5D0E
3E0EBECC
3D8F6076
BEE718C0
BEF38F40
3EC571BE
3D469E14
3E0B9B9D
BF104751
3E8D2E9E
3E812514
BE476A2F
BE863491
3D84BD19
BE98933C
3ED100B4
3E52A807
BEF6F145
BF11320E
3DFB1027
BE0F74A5
BE7FA213
BF0C8B73
BEF3B1A2
3E561BBE
3E97BD9D
3E9E9AB9
3E8701FC
3E5B4C1B
BF20F235
BDAD8C53
BEEF47B0
3EA473CA
BCA480E9
BEC4C092
BF04D264
BE1FBCF2
3E526E3A
3EA865CE
3C90B051
3BA265F1
3D86D4B6
3EA5EC0F
3E8CE5B1
BE9F90FF
BF0565BE
BD25A8B6
3D94289F
BEE27BBD
3DF52787
BE12D3A6
3DFA50A1
BE3CE739
3EDB4A02
3E43CD9A
BD983BB1
BEEBC618
BEEA4870
BF0595C1
BEE9DE12
BD76253B
3EBD7947
BE97F8B0
3D6857D8
BCB30C31
BE3D75D5
3DF3F96F
BEFC4725
BEE65929
BD9CC35D
3CF0FB4B
3DC679E7
3F0A548E
BDF5F619
BE69DDAE
BF012B5D
BE780C3E
3E92EB55
3E80DADD
3E23916A
3ED825F5
3E9779B7
BEFD4BEA
BE6C89B1
BF218474
3D4FD6F3
BEB3C0E4
BC480A5B
BE83A2E0
3E3CE87B
3E81B34A
3EB3E0FA
3E0F7D60
3EE547A1
BB0B8A0C
BE5DA2A8
BE4C84D7
BECB6856
BE505E73
BDFB1B37
3D3C3CAC
3EBCC774
3EDB1884
3CF2BD57
BEB6408C
BEA82873
3D81EAF1
3D99D85B
BE5F001F
3DB2288C
BF464882
BE1E97D7
BF205311
BEE8FC86
BE130D74
BE483A32
BEDE4A13
BED8650E
BED9CE4E
BE2977BB
3E5786A1
3EBA6B1B
BE431DDD
BAB8C5AF
3EAE4A27
3E9AC38E
3E91CF7F
BEAA3286
3ED6C307
BEB38880
3DEE8790
3D9F3BF8
3EE7FDB8
BD1BE51E
3F00B5F4
BEAC7959
3E02ED64
BCD0989F
BE7D022C
3CC218A9
BEDCBC21
3CC1878A
BDB3FA1D
BE932C9B
3E9C3775
BE8F745B
3E619A27
3E85C817
BEC63F3C
3E9F166B
BEA04F28
3ED2084E
3E420EE2
BBB8D8FA
BDA975F3
3D452462
BE3A393F
BE57BD2E
3EBAAF07
BD9D76C6
BDA87161
BE7E1163
3E7B53A1
BE4283DA
3D7CE330
3D2634E8
BE934539
BE93558A
BE5114A4
3E9332C4
3EC791F0
BE1E5F59
BE002F30
BC04E252
3D8E74BD
BF025EB3
BA38A77C
BE641F35
3EA17E74
3E204A65
BECE11E3
BEFEEAC8
3D9863F5
3E9D3123
3C74128C
3F0E4884
BA8B0DE6
3F0AA597
BE2BB72A
3ED63E37
3EDF23BF
BBA4052D
BE8E4222
3E6321FA
3E85CD08
3E8870B5
BE4F0B0D
3EAA9542
3F005A13
BCC9C4DB
3D384506
3E9E7DDD
3E3CB253
3E751E97
BEB095D7
BE89861F
3E8013DB
3E2DFC56
3C8E0DE0
3D858205
BE2EBDB2
3E02E869
3DABA5A0
3ED8B648
3B250A10
BE8080FA
3F01A6D0
3E189E20
3E51C8D7
BEE958F1
3EA9C052
3EEAB456
BD4F5A10
3EA09F12
3DBA1CB9
BE89A36E
3E92DB65
3EAD107C
3EBB3FBE
BCC019CC
BED64DDA
BE87DBB8
BEA5FAE2
3E6CC5F5
3EE6059A
BE371ED1
3EF0491D
3E4C64C1
3EFC28D4
BC057372
BE6A467C
BE310CA5
BEB41BF5
3EE0CDB8
BE1C1B97
3D59DC65
3EBC9375
BEB75C6C
BE2E0602
3E952DDF
BEABA63B
3EEA653C
3E35BF13
3E05E12E
3EBC3541
BEAFB316
3DFE4408
BE094BED
3E94621B
BE120408
3E8825E8
3EABEEB6
3D81408D
3EE12C57
3D9BBF00
3C5D08F0
BE74ADD1
3D3D7485
BE9137AA
BE73728F
BEE108F6
3CE38C62
3E2A26C4
BE941ABA
BDF410B6
3EB2A949
3E4E80CC
BE616008
3EE3DDDE
3ED9ADFF
3EFE0576
3F0703D3
3EB26D8E
3DD894FA
3D658D73
3D9B55EF
3E1E7CEB
BEBC6F84
3ED6609F
BD8D3CFF
BCA3CC58
3E40EBCC
BE650636
BEE91083
3E03447A
3EB46375
3D67EB6C
3EC5F3B3
BDCF8925
3E8F5799
BEB3303A
BD84D1C1
BE679D97
3E7DC2E0
3DB62A36
3DE17325
3D6C8C86
BE882A53
3E9BBEF3
BDD829DD
BEC1DF36
3E853EBE
BE2FE0F6
3EB1C4CD
BE53229B
3EBB1254
BDA643BF
3EE1F285
3EFE2D98
BE276BF1
BE0099DA
BCB9C5BF
BEF34012
3E1A5FF0
3CB53501
3E1CE124
3B6AE338
BED6019B
3D37A4E8
3ECEAA8F
3EB863E7
3E40DC1F
BE2908D1
BEC5A58E
BDC01BBC
3ECCCD5A
3E2D0FBA
3ECC63C9
BEC7E9F4
BD8751B3
BE84CA1D
BEB049F3
BEB017EC
3D7935E1
BEFFCAD6
BD7F5119
BD9C1B11
BDA57F59
BDF7E0AC
BDA364B1
3E82EA31
3E81BAE8
3ECB8A7B
3E8FAA1F
BDC45473
BDA4898F
BD87CED9
3ED08784
3888509C
3EF3AD9F
3E9DCA52
BE17B14E
3E23367A
BEB8EBD6
BD40E6CB
BEE48857
BEEF3D58
BEC609B1
3EE0D47B
BEBF1272
3D1DF960
BEA62560
BE611687
3E4045D6
3E70777C
BE60AC34
BEBFC738
BEAECB06
3E4C9420
3B902801
3DA16F44
BD365DA5
BE77CDB2
BCBDB67A
BE876A87
3E255114
3ECAC70A
3E2DE574
3D8D9D92
BDD555D3
3E16B174
BDF73421
3E8022F5
BE477C17
3C849DF4
BE992B3D
BE10E920
3D457D68
BE3E718B
BE4EF877
3E33F7F0
3EB48AE6
BCDA5C37
3EE970B5
3D256E9F
BE956A05
BE86E56C
3E29CD9C
BE08691F
3EDF64DD
BEA8C257
3EE44B75
BDDBA684
BD84EF53
BD9C6D46
3E038FF2
BECEA98C
BE2F183D
BE400CDF
3E323CE4
3E637253
3EE14192
BEEDE39A
BD2A3289
BE8338A7
3D408AF0
3E232174
3DD9ABCB
BECBB1DE
3EF474DA
3ECF585C
3E8E04C7
3EA8BBAF
BDF9359E
3E6F0F3F
BE052264
3DB14644
3EF0358E
BEEE27E8
3EE98520
3ED71ED8
BE8E5D6C
3ECB5225
BE5B895E
3E02F040
BE2D5312
3ED9E714
3E61F5CC
3E0C46DF
BE9B2D97
BE1A8A1E
BE336F78
BEB7B9D3
BDCA8DB5
3E9AEB23
BDBF54ED
3EF0EE65
BCB0D4EA
BEF4CDF1
BEDA33C4
BD3926FE
3EDABFA2
3EB4106C
BE5D40AB
BE47D1C2
3DAAFFF3
3E1F197F
3EC96C54
3D31CE44
3E219C10
3E984319
BDB40BF1
3EBE0DA7
3E7B6A1F
3E7BB378
3D2E4903
BEDF1194
3E0EDD6A
BEA32F2D
3E33F332
3ECE85A2
3E0E8A5E
BEE204E9
BED6BCE8
BEE36717
3EBCFF39
BC53E26B
BEF1A332
BE19E4DD
3C437103
BECB6CC4
3E9C3746
BD64F5D3
3EE8A28E
BED26183
3E6D2602
BC3C82D3
3E45BB67
3E00B16B
BEC55A7A
BD72200E
BCA2AAF0
3DF3D1F4
BD308356
BE35D48B
BE420A9C
3EA9D650
BE69326C
3F067DBB
BEA72C01
3F0D6B52
3EDEA3D5
3E88D2B3
BEE7A35F
3EF5D1F3
3E9CFDA7
3ED918EA
BD03CB81
3EABA362
BE6502AC
3EFA9CB7
3EE21244
BED6ACEB
BDEC4919
3EB40424
BEA166FE
BE88D046
BC636601
3EF5B09A
3EDBF907
3E556B4B
BDA412C2
BE4326CD
BEDF06C4
3E0F44F6
BD29A382
BDBB2D32
3DA3ECA4
3EA41B51
BDCD4C34
3E2998C3
3E98F5D3
BE4F5346
BDD1395E
3EB2065A
BE70E149
BE96AAE6
3E8B225B
3E7769F3
BEE65CC8
BEEE55CE
3E2FF2D7
3EFD7E0C
BE89959E
BE841CC5
3EE9B859
BDE1D3D2
BD86862C
BD0E8A8D
BE7CD53E
BED1573A
3E89746E
BD5B8AA0
BE503368
3EB6CE57
BE7A2128
3ECCC583
BE729B93
3E7C5ECE
3E50AD6F
3E366E73
BDD56E4F
BC8F24CC
3EE6D6A3
3E9565A1
BE30305E
BE8A6312
3EFFD509
BED4A383
3EE1661A
BECB8CFC
BE5F7023
3E87324C
BED7A9F0
BE318344
3EB7977F
3F00293B
3E1B6F1A
BEB5F6B7
BE8F3740
3E70B179
BEC7F247
3EE859FB
BE2C3611
3D8220AF
3EBD922E
3CE8529A
BCE0CC28
BEA8CC1B
BE67FD90
BEBB941D
3EA82D89
3E2E44CB
3DE976CA
3E968DCD
BD010E1D
3EDDBA40
3F032C4B
BAC90314
BEC8236A
3EF47977
3A20BF28
BEA7261B
3DA85320
3D3D111D
3E22B727
3D9CC6AA
BDB7F936
BEFB468C
BDEFDE14
BCB69EC3
3E95A4C8
3E22D2C9
3C8AB2E1
BEBDB127
BE77A0B6
BDB4F21A
3E027F01
3E2F16CC
3D89DF62
3ECCF53C
3E9BC54E
BDC3DA4A
3D906F77
BDEC15B8
BEAEC92D
BEF5376D
BE17C0EE
BEA7AE91
BD71C433
BE316E52
BEF42ED5
3EFBD952
3EBEA6B8
3EC3843E
BCF5D321
BEFAB0ED
BF00D7F3
3E88E81A
BECD8164
3D6FDF71
BE31006E
3EDB9CFA
BE505EA9
3EBDBF9C
3EFFC983
BC719645
BE6E7F33
3DFCBF89
BEB084C7
3EAB9AF8
BCC47F20
3EC373BA
BEAA0C61
BEEBEFE1
BE1F1EC4
BDC023C2
BEC65263
3E22BBD9
BD1AAA71
3DEB3398
BDF99228
3E982191
3C181C56
3E4493AE
BE34326C
BF07E460
3EAAA0B7
BD04B6E9
3E8FCA7F
3EE9871B
BEBD0FE5
BEAA47CF
3EB80B71
BDF46349
BEF09B9C
3EB723F1
3EBB7A63
BE582463
BDA66483
BF15C27F
BEE4E695
3EEA3088
3EF30513
BE0F79CF
BEC265C5
BDF61614
3E3AAEEC
BE808162
BEA5807D
BE43D966
3E3AD8F8
BE9F18F6
BF063B69
BE345EE9
BEF63854
BDEDBE49
BE496935
3EC236E0
3EEEDE87
BE9ED798
3EBC3BBB
BED3A5BE
BE16DCFE
3E68E68E
BD03765C
BE035280
3D0A7C5B
BE7D4EA4
3DE8D45D
BEE96289
BE337A7A
3E9294FC
BEC87F8C
BDE89565
BEAC06C3
BE820986
3E145CAE
3EA50211
BE86F7D0
3E53108B
BE87DC96
BEC06067
BECF199D
BE59623C
BD40DB0C
BEBD354A
3E891BB5
3EC27BDB
BEE2CD58
3E67FCDB
BEE15754
3ED8F2A4
3EA02925
BDC8E608
3DD1BAEB
BE8D6D8C
3E8B617B
BE72B050
3DAD9E76
BDE54244
BE7C1A69
3F02A404
BE3EE4B3
BDACAA0A
BE727F6C
BDFCE5CF
BE1859F8
BF1C22B9
BE4481C0
3EAD823E
3EA7E3AD
3E2646EB
BF010FDA
3ED4590A
3F00DFE1
3D307E68
BEDBDBC2
3E80BC5A
BDCA4492
BEBF6BE7
BC920E1F
BD4607D2
BEF75D4D
BE85F09B
3EB7E098
3E6AAF57
3D117DA1
3D8873BD
3EB10CBD
BEA0580B
BE9C7AE5
BE68EE28
BEA9A693
BDA1BD11
BDCBCD51
BE6DA287
3E8799D8
BEE1C94C
BD4F3B57
BE83E762
3EE8F777
BE4926DC
3EF1113F
3F0366A4
BE8C8ABD
3EE31F9E
3CB8EC7B
BE52D800
3E50C2FC
3ED77015
BDF038C8
BEC38E02
BE3A650D
BDD1E91C
BDD351B7
BE9F1568
BEB37B0E
BECF6EF5
3F0C1A5D
BE9453CF
BE903C41
BEF3F460
BEB7D7DA
BE9C3C29
BDE649D4
3EBDD515
3EA48249
BE083119
BEEDFA98
BE3041B1
3E3A62C5
BEF12CEE
3DEC35A6
3DD85836
BEFE03E6
3EABB8EB
3D6F1180
3CEFD75E
BECDB68E
BEA265F8
BE0B009B
BD559289
BE181AA2
3E9FE8B2
BF00ACD5
3EE050B7
BE87B0D2
BE50C792
3EC73A40
BF0D60E8
BEC6A7CB
BF00393A
BEEFE1CD
3D59FA7D
BBE1B160
3DCBCDE4
3D4A20B6
BDF97AAB
3EFD0A1E
3D960179
3E271CE1
3DED44F8
3D918739
BE67C032
BE897B45
3DAA02E1
BED53E9C
3E54520A
BEEC8967
BEA2B075
BEF97C76
3C711150
3E632A14
BC4B3A91
3D464E7E
3ED2CF2A
BE278579
BD2394C5
3ECA9018
BEA142DF
BC72F47F
BEA4493B
BE099AD5
3DEDF6B3
3EAF7D0F
3ED6ED82
BE988AB7
BE1E00B7
BE848E55
BEB9E006
3ECB85A8
3ECCFECA
3E8745D0
BC9807C9
BEB2FD91
3EEB5877
BEE38BA2
BE452E29
3E9CD13B
BEBAA818
3D76BFE5
3EC4F953
3ED24B41
BDBD68D4
BE3F7EB6
BE97B664
BECFE2FE
3D0E6172
3DA6D168
3EED7DD3
3E608143
BEDCE39F
BE9963AA
BEC0B3A6
3E34DDD0
3EFEA00C
3EFCD295
3EA959DF
BE35B142
BE8A2414
3EF9E6AF
BE80D00D
BEC230D1
3E7486B4
3E74C3AD
BDCC2573
3E90FDD6
3E8BE9AE
3E50D4B4
3DB00E1A
3F03C894
BE9F09E3
BE125B03
3E8CFEEF
BD864402
BD3D6A8F
3E3B5B05
BE1EE8F3
3EBF4517
BE8519F3
BE0C4D15
3E1D2597
BE4FD26A
3BBD611F
3E7A8F41
3EE2AF1E
BC578664
3E744688
3E97673C
3EB164CB
3EFDB475
3E843ABF
BED6F281
BEA2AA8B
3C1F4759
3E6FE1EF
BD445B94
BE7F5805
3C07E09F
3F06E8DD
3E77CDB2
BCB3B214
BEBECA94
3EDE81F0
3F001CAA
BE1CB670
BE986131
3DE663BA
3E6F79DC
BEC6F5C8
3E91FCF7
3EFD5663
3E685894
BEDEBAF1
BBD50EBB
BCD68EED
BEF3D8A4
3F0605D5
BE69DC29
3EA69C9D
3EA8273B
BE8708E7
3DCA61C6
3EA79446
BE6CF96B
3EE87BAE
3C33C021
3E6C9173
BE77F99B
3F1E41DA
3E77806A
3EDE8DF5
BD0CA270
3E33B986
3DB7D0A1
BE6CCFD1
3EDF5042
3E7622A9
3E8E1488
3D94A1C8
3EA17C69
3D4AD404
3D85A4BA
3D2E345B
3DEE5802
BED7DC0C
BEDFDF02
3E341EA2
BED5956B
BE7193C1
BD612D42
3EAC3A93
BE015480
3ED8C752
3E4CBB4A
3E8DC9BB
3F0B4A46
BE3BF720
BD815D2D
BE9A6776
BE5818C6
3ED7FB26
3EAC7DDE
3CFD8425
BD344D7A
BE2AD92E
3E54A1BB
BE1C8F61
BEE6450E
BCD697F2
3ED3FFA5
3EBB3A4A
BEF46A82
BC98C70C
BDA8B6CB
3E1C8663
3D3C69C3
BDB8B751
BE8C2664
3C2D4A51
3D8543A1
3DECDB38
BD6D13CA
BEBEB402
3E1903AE
BED47EDA
3E85E62F
3D75E636
BE7F7E1C
3EEEEAF4
3D72E961
BD8A64B6
3EAE4968
BE1C99BC
3ECF49A7
BE63B21B
3E2875B4
3DD654D6
3DF5B05E
3E5BECF5
BED85BEF
3CFA86AF
3D9FA9C1
BECD0FD8
BF00B78A
3EF0386D
3E56814C
BA09C86B
BE0CF3A0
3EE8DC30
BECDA1F0
BEE83318
3E0DD009
3B30C88A
BED89027
BE851757
3D92178F
3E844EDE
3E79A177
3EA793CD
3E799DBE
BE4A249D
BE82D875
3DA49DA4
3E11F106
BEB4EB75
3EB748DA
BE459946
3E80AA03
BCB26B8D
BEF4942A
3EA92B54
BEFA868D
3DBFF6E1
3ED68DA1
BEF7C035
3D9A42A1
3E23420A
3D8A0275
BF01DC71
3E22265F
3E4A62FB
BEE46CA9
BE2C304D
BE86C79A
BEB7313F
3DB1079D
3EA8840E
3ED5F0E5
BE25AF0E
3E23BCF5
3E2750AE
3E102DED
3ECF03C7
BE833234
BE5DE10C
BEE5E7B1
BECBE95D
3DB90BAD
3E9AC164
3DA31170
3DE582A6
3E06E499
3DBBBE0F
BE9218E6
3D8362C1
3DEEFDAF
3E9BF805
BE8825FF
BE9CFDF7
3E9C37BF
3ECEA016
3ECBBA81
3EB7AA4E
BE85B142
BEB94541
BEFE1AF4
3EA6B496
3EF018B5
3ED7FAFE
BEAC22F5
3E03EE87
3DAE8D54
3E9BF402
3D07D83C
3EA87121
BED2FC84
3DAC4D66
3EDC87C7
3E368CAC
BDE8AA5E
3C2A6C50
BE569B5A
BEF6A67F
BECC3545
3B88707C
3DA7CCA5
3E604282
BE42CB5D
3EA21F5C
3ED34B22
BEC4D3EE
3E636D7A
3E9F984F
3EF39D0A
3EEC3D6F
3EE6E053
3EF596C1
3E92F205
3ED6F908
3ECD91C0
3EE6CF10
3D478240
BC599609
3E82BD9A
BED67290
BE3E25FE
3EAE4DA4
3E270ADF
BE83EFF5
3C9F7073
BEE59E0E
3E80CDFB
3E9F1876
BEE0F0D2
3EAF200A
BE3F9ED9
3E1CACFA
3D995853
3DFEC7C9
BCE8E88C
BC1DF2C5
3E77D970
BE9DF24F
BE4A7492
3E5F2E78
BEB1B4DD
BE7CB3EC
3E4A5BFB
3EE13B8B
BEA76802
3DCA5FE3
3EC80761
3E62CCDC
BED6024A
3E1197A2
3E9AC585
BDCAE4B0
BC752399
BD03DD1F
3E02BAA4
BF08D699
BD3097E3
BE1D8BD3
3E935C79
3D8AEEC1
BE72B5C4
BEB74E7D
BE7F8B01
3EAE915A
3E86B445
3E5971E9
BE2D9C86
3C0BC16A
3ED02AA7
3E09C1A8
BE8C0AB9
BEE18DE2
3EC66F68
3ED99BC3
3F007681
BEDDA192
3CA07988
3EBEE328
3E82DF68
3D96E76D
3BD80007
3CE316BB
BF1BA317
BF1AD8F7
BF1E5655
BCF7D666
BF1A363D
BC4A389E
BEFA11BA
3EA8A926
BEA43EE7
BE291531
3EFDEC95
BDAD69E0
BEAA9919
3E88327A
BEBC97F0
3A9A5D0E
BE66FFF7
BEEC6D83
BEBA952E
3AFF865D
BECC12B4
BEF6222A
BDAEAF18
BEE62223
BEF704F2
3EB1854F
3EB6CC27
3E38D237
BE116540
BE80B758
BEC612DE
BE823B69
BE7372A4
BE5C2614
BE8E20E4
3E0C5D8C
BEB21940
BE11546C
3AD3AB0D
BE6C4E1B
3DE2A86C
BD6B110B
3E32CF53
3E929959
BE940241
3E9CD3B5
BE5B9FB4
BCB130C5
3EAF5310
BDBAE3E7
3EEE9E61
3ED7EE9F
BD4387FA
BDC234DE
BF12ACEE
BE4EDCE4
BEA5E9E2
BEFC98E5
BE247A62
3E3265C2
BE8CDD39
3C647205
BE235738
BED8A11D
BE02C8FB
3E858B1A
3E85EC2D
BCD8F4F9
BF023D5D
BEC10954
3E52FFFA
3DF31F62
3D9B62F0
BDF59C57
BDCE6299
3E93A886
BE92E4A3
3E668DFC
BE28DB27
BEBE9149
BE9EF83B
BE4C906E
3EAF6CFD
BE3719FF
3D0D4D5B
BEC4229E
BEB3DDCE
BF08965F
BF2622B2
BEB24BBA
3E3269B1
BE13B83D
BE8899C6
BD627F6C
3E6273F7
3E380502
BEC643F1
BDF26578
BEB45EEC
BEB6CF60
3BC9993C
3EB91736
3E8F95DC
BEC9F333
BE6AC103
BE8B4ED1
3EF11D47
BCA6025E
3EC76379
BEB793A5
BE16530E
3EA12C9A
BE4A9937
BE0552D6
BCB3D5BB
BECB5A64
BD64FF79
BD37AD4B
BEECE5DC
BE2F41D1
BF0A8D00
BF05CBC3
BEF0E12F
BE338096
BDB2DB8A
3E88B82F
BEAB63B2
3DED061B
BEB7F9AF
BE2FDAD4
3E8DDA3F
3E22CEFB
BE9841FF
3CFFE08B
3E4EF00D
BE08B5FB
3D925BB8
BDF0159A
3DDFE890
BE4E5FB0
BB589DBB
BEAA3A48
3BF415E7
BEA84B97
3E6C17B6
BEBE7B77
BE5A76F4
BEA18C3B
3E041794
BE8B7B1F
BA88F862
3DEC939A
BE76B9A1
3E4619C6
BE6EEDCC
3EA4E902
BC91F9FE
BD3BCA46
BD585B0B
3DB18175
3E55C910
BEC90D79
BEB48D88
3E829D70
BBB7E762
3E6D9232
BE84F9CF
BE0FB53D
3D163DC5
BEACBCFB
3F11500E
3D615550
3DDE1D4A
3E4241B0
3E57918F
BDC94241
3D9B5A71
3E14405F
BEA78BBD
BEE02FDB
3ECFD988
3EEC5122
BEEEE431
BE363088
3E509CE5
BE3AE95B
BEB7F247
BEBDB5F7
3E037062
BD74529D
3E37CE7B
BDD355CE
3E44420C
BECC12F1
3DBB8CB9
3E4E6C6E
BE9B85D1
3E8F585C
3F3A33DC
3F24712D
3F3E3136
3F2DD06F
3F696A40
3E903A21
3C87EA45
3A2A7F9B
BC492B58
3E628DFF
BEDB6984
3EE0A223
BEDA144C
BED3220B
3EE09B1C
BEC57558
BDA830F1
3DE4B953
BE0193C8
3D926677
3EBD36F5
BE77EBA2
BE8CA3D4
3EA3BAC1
3EC31E55
3F15DA3B
3B8095BD
BF033608
3EB6FDFF
3F54BCFE
3F2EA8D2
3E6819ED
3EBF5C87
3F39B95A
BD7FB04F
BC06DC28
BE80B037
BE0FC102
3E8EBFDB
3EC88BE8
BE25CEC7
3EE4930D
3EB996E3
BDA87387
BEE74C17
3EA9A303
3D9B90C2
3E011164
3DDDEC7A
3F185DF5
3F11E336
BDC4B1AB
BE83EFF5
BEBBD45A
3C9DFDAC
3E144806
BD6DA04C
3ED6D3BA
3F09A254
3E53E26B
3D9F572E
3F0AB1A8
3F03FE0A
3ECBDF82
3E4931D1
3EB62018
BEC8C720
3EE6B841
BDAAFCDC
3EF698A7
3EC5B740
3E838B77
3EDEB4EA
3E9D8FE3
BE59705D
3F2A6434
3E7486BB
3EA9C180
BDC703D8
3F0F956D
3E6F9003
BDCF3AB6
BEFA8064
3E601210
3E48081A
BE0F0C50
3E6B2273
3E6899E1
3EA17845
3DB41C9D
BE44D8E9
BE73FBD2
BE5D24CD
3E99DAED
3E9CC67F
3EB5EC48
3E79C46F
3EFA6202
3EB5D016
BEAD38DB
3EF65816
3E95461F
3F052C48
3F0AA51E
3E0B5448
BEA1446B
3ED87D2C
BEBBE956
3E9BF27D
BE93DBF5
BF10923D
BE1A8FBA
3E8D7ED6
3DADE58E
BD7AB035
BDF9160E
3D073F24
3EA40C63
3EF04B1E
BDFEB3D0
BEBC7D33
3EBCC2B8
BE91E3CD
BE9B2DC6
3E1676D6
BED6F20F
BECD2AD8
BDDAAA7E
BEDF8EAD
3EE91835
3DC7292C
BEBB9B4F
3E97BCF8
3D54474A
3F03E5C6
BE56F362
3D00D1B7
3E3F6039
BEBA2864
BE41F575
BE715CB4
3D2CE5F7
3EF58DCE
3ECB82DA
3E4B0363
3EDC69D7
3F11979A
3F1902D2
3D69C6D9
3E54353A
BEF06915
BD063213
3D7E5D4E
BE1B1408
3E591C66
BE951588
BE00455D
3E6C8C72
3DF964CE
3DA5B35B
3EF1CBC6
BE11C674
3DAF8EDC
BD28BCD3
BD9B95D8
BE7C5D49
BC9387D2
BECAAF18
BDC3B180
3EFDE604
3E477235
3E018AEC
BE2B66D1
BE48CC8D
BEC8F18A
3DA05ECB
BEFDEAE1
BF1680AC
BC8E0BC7
3CAEAA02
3E7BAAC4
3E4FF866
BEE37250
BE3E85C1
BF066E7E
3E20760B
BC93A59A
3BF6B279
3E935148
BE4E7A96
3F061D52
BE0C80E2
BE67298A
BAE820E6
3E9C97A6
3E9FE9A7
3F036B86
3CEDA4B4
BE5CD8FD
3D18BC5A
BE038ADC
3BA748AF
BD2C8BAF
BE8FBA45
3E48DF08
3CCB0E1B
BF07E1C5
3ED83ADD
3E4D51AE
3E342225
3C816921
BD33741B
BE428D57
BD321BDC
3E154AAE
BE329890
BE1B737A
BE16A2A4
3EB22FA3
3ED6B576
3DCE5F31
3EF82E45
BE6AF683
3E6789FC
BD94CD8F
BEE8469F
3E2B42E0
BDC8E292
BDD08363
3DBB1855
BD544CD9
3DB17A2B
BE974E0F
BECED3BE
BE975AEA
BE7A5DD7
3EE9EB99
BE08AFB7
BE926C35
3E26F164
BF01DAF7
3E1EB314
BF0A501E
BE90FA5C
BEB6F0DA
3E450863
3D08A307
BD5567DC
BE8826C9
3DF8D02B
BDBBE12F
3E10B927
3CFFC1B7
3D5AE32B
BE8E9373
BF256EF8
3E201F5A
BF259D33
BE89B117
BEA18FB8
3E2A4E2A
BF01F2C8
BE8C0608
BE773C2E
BDDDE00D
3D58AA6B
3CFE103C
BE1F7503
3EB7EDD5
3E104F17
BF2A3266
3E14FBA5
BEBE5764
BF2CAE55
BF022D10
3C9EC76B
BF085435
BEB2EF73
BE2A39F4
BE819938
3E94C236
3E679017
3E2D0B6D
BE2B2B05
3D40312E
BED9DF3D
BCE0E695
BD3BAD20
BE9E267D
BED6BB13
BECAD3A6
BE7D3B4B
BE5F95BA
BDE5654A
3CCF073A
3E20B0DE
3EBFD3AF
BF07069A
BF1B7C9B
3D2BBDF4
BD5B8562
BF31CEF6
3DD558B5
BEBA411C
BEC3C10C
BE8A2F10
BF032E47
BEEE61C6
BE5B1C86
BE592C1A
BE9196D2
BEBC59AE
BE93B755
BEA9A50B
BF1405B9
BEEA7898
BD01F065
3E787889
3EDF9DEB
BEEFE98C
3EEC56BE
BEDDDE12
BE578DF1
BE8D5B61
BDC57159
3E82F937
3EB842F0
BE90F8B2
3E05B793
3EBB014A
BE14A325
3E4CCBF6
3ED999ED
BF1080BA
3E7D105B
BEF69E57
BE52FD6F
3EAF8D64
BEADCB29
3D8DEBBE
BE02C2B7
3E364AD9
BEEFD739
3E873AC0
BEFB237C
BE90ACCB
BEB1CC46
3E83E9AE
BEE51F5D
BEC803F9
3E948B33
BEFD67F0
BEB23C2B
BED64F7A
BE51F4E8
3DF28764
3EB6BAE4
BE7F44EF
BE8ECF2A
3EDB703D
BEAF5339
BE9BF6E7
BE50A35E
BEC56F51
BE0FBD42
BE69296E
BEB2C362
3DE8EF5D
BE16180C
3B21928C
BE5A269B
3E92DC1E
BE48DFCB
3BB61ADA
3E861859
BCF42D2E
3E91E233
3EDCAF20
BE8B6977
3EAB0FEA
BEED11A7
BEE91E54
3EDC1DCE
BE40FBF2
BEAC8876
BEB6F5D2
3EA92AF0
3EF2568E
BE9877BC
3E306892
3D845A7B
BE5B37A1
BEB44D26
BEAAD620
BD7D7160
BC29F9CF
3D4F26E4
3E49E386
BEAA7D35
3EF07142
BE590BA6
3BEAF252
3E9ED31C
3E114E35
BEE2AA02
3DB5DF4A
BEC51B96
3EAF125A
3CABE70F
BE145565
3E5839C7
3DC7873B
BDB982F3
3D62BD4A
3E4D81A7
BE53BAE9
3BBF246E
BC8E8CF6
BE30BB68
3EBAA232
3C5FC8BD
BE94FB3A
BE4F3E0A
3E21CFD0
BDC30C17
3EA8F4E8
BE974660
3EFF623B
3CC93858
BE35048F
3EE5FFF1
3E9BA1CC
3EB43D86
3E8AF343
BD451A1B
3ED19385
BE0F0A6C
3D8CB909
3E83B847
3EC8D980
3ED9638C
BD537161
BD2B6864
BE6027FA
3EF97717
BE8892D0
3E7C1D95
3E1F78C3
3EC2F721
BEA2BDE1
3CEC19CF
BE225B46
BDE0A75A
3EAF33EC
3EFB3F27
3E93D984
3E13DA4A
BEAFDBEA
3E8C158C
BEAD522A
BC904F38
3E65F39B
3EEFE5B5
BE298EE1
BB84BBBC
BDA2F04D
BE832FDC
3EB6564E
3EF97024
3EFD918D
3E721C5C
3ECB53A4
BD972CCA
BEA5CF93
BEA97694
BDDC12D6
BDD796C0
3ECB0D69
3EFC8A4F
BE8579E8
BED694B5
3C9910A8
3D9219C3
BD20251F
BE107B1A
3D75DAFE
BE80841F
BEFE51D2
3E5DBEDD
BEF46E74
BEABA400
BE9A2585
3E7D16B3
BEBBBE4B
3D089870
BE838796
3D5C2133
3E8DDF22
BECD2F6F
3D283DD7
3E8B76E9
3EABD252
BD7B2174
BE9A06E7
BEF9F564
3DD77F6B
3DB3A92A
BDC2A6A3
3A2CA5E6
3DA18A29
3E0DD653
3D986303
BECF701C
BE94D98A
BEEE7F98
BD3DC161
3E89E1D5
BE5E076D
BD304FF4
BC67D714
BE46E455
3DF94C0F
3E3D4450
BEE21E13
3E887EB2
BE8A757D
BE4AED86
BE3B3567
3F002A62
BDC6C340
3EB988AA
3E88CF76
BE867815
BE5431B7
3EF0AC5C
BE818B54
3ECC552C
3D6B95CB
3E1855E8
BDD4CF58
BEBB0E04
BE5B30F9
3EEFB5EE
BE8B49D9
BB9C81AB
BEFEC9A9
3E39FBEE
BE711EC2
BE5B6185
BEB8F843
3E804652
3DC645E5
3E8F91F4
BD10437A
3E347270
3D666E5F
3E40151A
3EFB992D
3EC43EE3
3E54B00B
BDCACE90
3E679DEF
BD3B2E24
3DBC7A54
3EF09812
BDE9E336
3E9E2DC7
3EB7360F
3EE44556
BD26FBB8
BE8049E6
BEDC2E31
3E77E868
BE90EDE2
BE4EF014
BE867C1E
BE8F2940
3EF5E908
3C0AA433
3CBA5CBD
BEAE4CDE
BE42742D
BEA8F253
3EEA148F
3E877377
3EB0547A
3D35CD92
BC80672E
3EA14FD5
BE3A8127
3F0E68A3
BEDEA0F3
3ED4521A
BD844DB0
3DD8E35C
3EBFCEED
3E9F024C
BDD0A6C7
3E5696DF
3E659F32
3EB1D52F
3EEA2F99
3E96E6D3
3DB74B91
BEA6218C
BED07ECD
3EAF5679
BD81F249
BEB973C2
BD916FA1
3F083C41
BE2CBF82
3E1F3F96
3F158421
BEA1F783
BDB9B0EE
3EAE7961
3C374EB6
3E17FF4B
BD58570F
3E197B3E
3D9C486B
BDD962C2
3CD9C503
BF0AF153
BF005DE5
BD8BFBB7
3E989499
BDBF2793
BEBB26C0
3C8371DA
BE7CDC58
BECF5177
BE3DD088
3EB78C07
BE3B07F2
BD2B8FEC
3E54A595
3E2A38CD
BD220DDC
3EFDC2B4
3E3A9890
3E972E64
3E56C8B4
3E5CA09A
3E9B4EEF
3E97426B
BE84ABF7
BED019B7
BE51D2EE
3CFF0996
3E4D1B9A
BF16BD97
BED664C0
BD6F44AC
BEE0B4A1
BEB3395C
3EC03EA4
3EB23FEE
3D642056
BEF9B86E
BE0E5EB1
3E9ED712
BEC60BAC
3E24A1DC
3E00BFFF
BE44287D
BEDC2504
BDBECAE1
BEEC98F9
3D15F824
3DCB4048
3F0D38BF
3DE1B973
3F0695C5
BEB411AE
3E638CD4
3B2E8AC2
BE9C4AA9
BF1F9520
BF0871DB
BEFC0D4E
BF07EF4F
BE8E94F2
BE7074A7
BCABE8F2
BE43EA84
BDA33E43
BE1117BC
BEA7D827
3EF0A2DF
BE096088
3ACA4BE9
3E8C9419
BB725D80
BE814007
BE20D6C6
3E19DE4F
BEB17463
3F03EE53
3F4CB7D2
3F084FFD
BEE73E72
BD9B84DC
BF1D2102
3E76D494
BDF71A2E
BF4055A8
BD97074E
BF283046
BEE542E2
3EC18365
BEB6040B
BEA1BD04
BEB06332
BDB73556
3E1F0F2B
BCDBA17C
3EAB5204
BEDE7CB5
3E505095
3ECABBE6
BB5DA2DE
BE91E3AF
BDD3F911
3D215B4A
BE51F13C
BDD13DB8
3F0FE269
3E476DF6
3D8FEE98
BD827AEA
BE76E3F1
3DA98F2B
3E7E5E75
BE6B5E6D
3D93A5CF
BD60FF6F
BDA834FB
BC10624E
3DC701A4
3E169736
BDC68B34
3E74B4F9
3EA9196D
3D51B22A
BEA8C01D
3DDC1BF5
BE8F5C69
3F1E1D75
3DCF17E6
3E822B86
3D89BB35
3E0F39B0
3EC5AF0B
3EAA13E7
3F3FA026
BE4B429D
BE086F55
BD3D7B05
3E2CEDDB
BEE313A0
3EA6FCC4
BEBAB7FB
3EEA76BB
3EDB731C
3E16A4E5
3E828B38
3D312E91
BEAD11D3
BE7F4561
BEB501FA
3E9CA2C7
3E168512
3EDD4CD1
3E9D44F8
BDBF790C
BE9DB867
BEA08473
BE5FFFA9
BF30B895
BDB92BEB
3F0F7ABA
3F59E5A4
3EF14EEA
3EC3779F
BE7FBB29
BCC1FA0B
3EBE6EA5
3DB4D105
3E6D838A
3E24881E
3E8E877F
3E5FD509
3E74B08A
3DD85A85
3E13AC93
BDD17CA2
BE186325
BE9BDEA8
3D6B5640
3DF58EF8
BDE5AEBE
BCC5D81C
BD00D05A
BE0B313C
BEF605FF
BE41F094
BF1BCB45
BF3572F4
3EC491D1
3E6E6250
3F20E9C4
3E483842
BEB7B5A5
BDD70AB6
BE155729
BE03AA5F
3E9D3A49
BE18AEE0
3EC23C86
BD8928FC
3E3B092E
BE26D627
BEFA0FC6
BE016327
3EDEF545
3E209E0C
3E8BE059
BE28C3C5
3EBA73ED
BE5169E4
3EE7183A
BE9C352D
3DFA2D22
BF2CCB7C
BF27DFB1
BE525714
3E68BD5F
3EF1ED65
3F01B7BC
BE61479A
3E612ED4
3CB59A81
3F104120
3F165333
3F34D186
BD2CE0D4
BE9CC3FE
3E1396A8
BE00155D
3E896C80
3EDA9FDD
BEFED619
BECDDB19
3EE14C12
BDEEDB9B
BEED7D39
BCA4DBED
BF06FA36
BE7993F0
BE3CE692
BE54C419
BF082556
BE58BA3A
BECEA9B5
3E552CEE
BDD08E15
3F0497DA
3EE9CEC0
BD8F0FFB
3D81EA36
BCEE5761
3E1454EC
BBBDE9DB
BE161156
BDE870B2
BE112890
3DA782C6
BCFC705E
3EECC95A
3EDAE1DF
BE8D39E1
3EC5E453
3ED72EDD
BE846EA0
3D6126F7
BED58FB4
BE82390D
BE7E424E
BE89DCFF
BD4EAC86
3E1579EB
3EB13071
3F148CF9
3E9072B3
BE08F6CF
BE09104A
BD979C41
3ECFFD4D
BE5A21D6
BEA02961
3E906541
3D52B5AF
BBCBC998
BEE27D82
3ED13BFD
3EF6C761
BC89CE80
BD27C93D
BD8C8209
BD84EA3D
BE23F812
3D3EC85D
BED5D92B
BEADBCDC
3EBDDBA2
BF0914B6
BDB0B235
BE7802BA
3DD966A4
BEBFB0D5
3F228021
3E83E264
BE0B42AB
3ECF8FF2
3EAD078F
BE977348
BE968493
BB1854F6
BEC5DC11
BE80D7F4
BE00D499
3E9C7315
3EDCD5AC
BECFD2D2
3EF1A801
3E90B42F
BEE19F40
BD3E900E
BE945D85
BD265011
3E608A41
BD6FE8E1
BEEC01B4
BE982FAC
3EE3640D
BE8699D5
3E4386E7
3EA61DD7
3E16E4E9
3F1CA090
3E2D766F
BE0AA38C
BE0E4FFD
3E44FED1
BE93D1EE
BEC39926
3E05FD34
BE0307F9
3E14E4DD
3EAF3E51
3E7432BD
BE937718
3E737B9B
3DBEF467
BE65438D
3E4C593F
BE031B58
BE45AAAE
BEDA9DB3
BD91AEF7
3E40D6A5
BEBBA934
BE3A98EE
3F0CAA4D
3CF9A9A5
3D0919D5
BE2069A5
3E6D83A5
3E4BE978
BDC39F0C
3E20C21E
BE0723D3
3EB524CA
3EA23E47
BEFB1649
BE395BC9
BE627385
3E9F58C1
3E150368
3EF7A5D3
3E5DE6A8
BE467621
BEAFF7D6
BD5BCFF0
3ECB77F6
BDD7A75E
BEC50FD5
BEA811E1
3E53DE68
BDCD8C2A
3F083C05
3E93E0C1
3E50FEEF
BCE83142
3E8602B5
3E46AFE1
BE688CC5
3E0786C9
3D741073
BEA8661E
BEEDF875
3E96289D
3B77BEE9
BE8FCDD0
3ED2B148
3D36E09D
BE0A6E8A
BEA75F55
BDE8CF11
3EE426EE
BEBACC1D
BECF85D4
BE846947
BE8E2835
BD1651B1
BEDFDF31
3E2D0686
3E8939A1
3DDC7F42
3E7DBCC4
BE1486C1
3E4BCDB5
BE1C3D97
BCDDD060
3D144227
3EA18329
BDFD8615
3EC9E287
BE8EBCFC
BE297375
3ECB6248
3C543003
BE3AED64
BDF2F29C
3D97D864
BEAE0528
3EDD1707
3EC8EB64
BE335B12
BE404733
3EA95348
BD86CE1B
BE1B8829
BEE42492
3E731331
3EE94A4D
BDE3FA38
3DE922B1
3E6B44E5
3E5770D8
3EEE0664
3E3E751B
3EF5B428
BE978E88
BDEA80DD
3D28BCB8
3E14F5FC
BED39FF3
BEA6B573
3EE5A598
3CBC664D
BEB652EC
BD813653
3E811E3C
BC632350
3EF09B0C
3ED1517C
BDA61FF0
3EB43827
BE9BA8B5
3E413BCE
3E3273FE
3E09172F
BEDF5E67
3E85FF7B
BBE1D49C
BEC1BB2E
BEDD69B8
3E970242
3E4B393B
3DDF3E2C
3EF951AB
3E240329
3E7DE56D
3E9AA64C
BDF1205C
BF04BBE9
3D7D4987
3E45F86E
BDE4638D
3DCCB0E8
BEAFB844
BD103A40
BEFFC95B
3ED15513
3EE758AC
3EF24E45
3E975918
BE1A2AA5
3EA3F3D3
BF0220CA
BF031539
BE04F8FF
3E399249
BE5AF110
BDCB57E0
BED38DD6
BE2E31EB
BE8B71E1
BEA07AB6
BE687BFE
BEF35C3A
3E6CED33
BDC20DB4
3DDE85C7
3EBC6855
BEB28577
3EBB6354
3D05BADA
3E9DD30D
BE93B3DC
BEC2FF27
3EEECC34
3E34A4EE
BEC32B38
3EBC15CF
3DE74B91
BED22F06
3E1A5BA4
3EBD3492
3E6E2A01
3D9B9311
BECF3E9E
BD112755
BE03E5B8
BE966AFD
3DA5C407
3E144FB4
3E7C316D
BEB200DF
3E26F45A
3E818D55
BEAEBB37
3E898779
BD55AA71
3EDAE720
3E47C823
3D8E9C7B
3E8B34EE
BE89C828
BDF71690
3EF76F78
BE1BD44A
BE1E02C2
3E1F7A26
BD3FA278
BE968053
BE5351DF
3D5AD1A8
3ECBAB40
BE4D014F
BDA0B9F7
BCC8AD4E
BE744D15
3ECC7747
BEB7A403
3EB0BFAE
3EA0A046
3EA6A6D2
BCD6D275
3ECEA7D5
3E043717
BE4D2411
BEE69F24
BDDCD870
3E50A3A1
3EE4BC2E
BED27500
BE677F5E
3E5FDDD1
BE397C87
3E1E036A
3E626769
3E4FD502
3F0D0D77
BD879797
BE8BF0D9
BE1ED7AC
3E7E8F6D
3E834575
BEDA8A6F
3ED23CE4
BE79C5EE
3EBDD3F4
BB0ED444
BE6E59EC
3F090A90
BEC10199
3EC3BDF4
3E8CB344
BC8E7686
3E482A13
BDEE6A69
3E7802DB
3E5CA97D
3E8D3DE7
BD5E080E
3E2621E0
3EBAC8A7
3E61EA79
BDE2A660
BE9630E2
BDB3F7C1
BEB0FB1F
3EE66D19
BCA0D888
3D0AC4EB
3F130977
3E4EC7E4
BE76160E
3E9F1ECE
3EBA3180
BEA40F99
3EFD81BF
3D9F37FC
BDE1031A
3F073492
BD0AF5AD
BDFB2167
3EA8823C
BE8AEE48
3EB1BC2A
3C447B5A
3DE5B226
3DB6CE1B
BE8B8767
BDE55631
BEEE0C79
3EC78FA2
BE7AD773
3E889200
BE5E3151
BD683B1D
BEB81E18
BE0CDDC9
BE4804B8
3C50565A
3EA9D59E
BE48A50C
BEC89BBA
3ED390F8
3EFE4434
3EA6788A
3ED7B4BA
3EB78203
BE215996
BE7BD2BE
3EB1283C
3E97F544
3E03FC30
3E323C43
BEF2F9E9
BCC45BE5
BEA0BE04
3E0CE542
BEDE9238
BDB1159C
BEF2E2EB
BECC9FB3
BE4977BB
BE62DF21
3EB5D222
3D973EEE
3E5D0A09
3EF715CA
3EDABCC7
BEFBEAD2
BC8DAF81
3E66FA7C
BE52E2CD
3D98C587
3DEFF7D2
BE684B2F
BDDBE14A
3D09D1F6
BEBF5346
3E6B0688
3E92D967
3EF1D4F6
3CD788B3
BDACA205
3E15E62F
3D53F4FA
3EC8916D
3EAA341F
BE9F1E05
3EE9D533
BE8278D1
BE9256DE
BEE36C20
3D415EC0
BC0BB7C4
3ED21F5F
BEC25768
BE96E80B
3EC849DF
BEE54FA6
BE8F3BDD
BDF6BBC1
3E8D48BB
3C48626F
3EE802B7
BDDB3263
3E91AD54
BE1E6404
3EDA88CE
3ED25A0E
BED9AEBB
3E5AC472
3EC42EEC
3DCE9BF5
BEBDD42A
3CF21A2E
BEB1C0C7
BEF579C0
BE0F16FB
BE26EAFE
3EEEF757
3DC29117
3D320DEA
BEF762DC
BEBB291C
BEF1BDEC
3EDD4424
BE5B71DA
BE63D288
3EBB092E
BE20F118
BC6E1013
BE8B1EF6
BEC7CE9D
3EF8999E
BEA8320B
B8F34507
3E8BD9B0
3C9F5EA0
BD96198A
3E3C3F95
3DBF36C7
BEB855A1
3D85C465
BE9CA6E2
BE6E51B8
BED2D9B8
BE37B74F
BE802AE3
BDC1CFD6
3DE70F7C
BEB89BDF
BF0948B7
BEA732DC
BE824C94
BE93196B
BE4799D8
BE7C9294
3B71A6A1
3D884FFB
BECA83D7
3EA75148
BEF62ACD
BE39CB1E
3EE2899E
BEF3A30F
BC0EC9C7
BD700094
3E97E8E8
BEFAFEFB
3EBB42B5
BCCF3A65
3DB1896D
BF0579B6
BF070938
3E4B300E
BEB31568
BEFDFFF4
BF0D3713
BE42F79D
BE016434
3E177B4D
3E6396D1
3E1EA606
BEDA4C69
BEE461E9
3E80E8C2
BE3F4A70
BDFB1580
BDA76C48
3EF14269
3A73BDD2
BE87F95B
3EF508F3
3E9D64BD
BEA67833
BEFE66BE
BE52C182
3DD3014A
3E8BBBB3
BE86BFFD
BDF98B64
BEB243F1
3E835774
BE5E0B1F
BECB73B0
BCBCAE72
3E24326C
BDB99AB3
3DAA7009
BEFC749D
BF169EE6
3DBFE7E2
BEC4985F
3E385228
3E3C7A62
BE22DC53
3E636970
BE8C4004
3E72BC51
BEE80970
BEC2A528
BE9721D2
BE6515CF
BECD2418
BEFEC630
BD9B78CD
BEE8197E
BE98EBE4
BF112DFC
3E753437
BDB17F9F
BE3629B7
BEF0B800
BCE6C45A
BEA4062C
3E2049DF
BEA56CF2
3D336EA7
3E8CEDD1
BF02BC2B
BEA670B4
BED33A87
3E8C55AF
BE1A4393
3ECB1027
3E46299C
3E528F34
BC38404E
3E917EE3
BE0719F1
3BFE1BFA
3ECCB3A9
3D79D32B
3E6E91D0
BF1382D2
BD06ADEA
BEC27D38
BF022A47
3E87E70B
BE8654CF
BEDA7E7A
3DDF1A34
3EF4A3EB
BE901715
BEDD6B76
3EC48DC4
3DEE7297
BE7D67C1
3E73709F
3E6C000A
BD5B66A9
3EC47387
3EC226C4
BDC9568B
BE2E8753
3E04763D
3EAF4020
3EB75D57
BEE3BA02
3DF43E96
BE937FE1
BA1F6230
BD8C0592
3E49E58B
BE868188
BD835F9B
BE68C5CA
BD7DE269
3E071F94
BE1B9BB8
3EE44762
3D8B2A93
3E52CF96
3E48678C
3E73B1A2
3EA12FAB
3E834CFF
3E592D8B
BE83CC6C
BDC63EA9
BD807EE1
3EAF867F
BDADF175
BEE798B0
3E997D39
BD8A6323
3DBE8668
3E04ABFB
BE6E5D8A
3DD95A37
BEA1609C
BD8948E9
BECC7263
3E431565
BE9D9AE2
BDEC030E
BE5A3092
3E89CB04
BE99BFD5
3E9E1D6F
3EAF0861
BEFD5524
3E01F9DC
3EACEB43
3EC30CF7
3D0303A6
3E6EF673
3D7BDB28
3F2C5403
3F18C056
3F017C3F
BE94758F
BE249222
BEFF8EE9
BEADB315
BEBFA81A
BDB91F05
3E67FA71
3E500BED
3E2421E9
BE021936
BEFD71C8
BE9D1274
3D2929E0
3EB47509
3E365EF5
BE612E69
BECC115B
BE95C582
BE357F81
BF05D946
BEBFBD2B
BE6FE938
3D2E8336
BEDA9FB8
BE74F3BA
3F2C7430
3EC98068
3E82C867
3EEBF4C4
BDBBE2C2
BE3A5A68
BEE1D013
3E714F99
BE4AED28
BE94DEAA
3EBFC5F6
3E8BA0A2
3EF722D4
3DBAC754
BDC1791F
BE133A0B
3E01973E
3E864D35
3F1AB782
BCCA4096
BE8364A7
BECAFC8B
BE66DA16
BEB6130A
BEC33ED3
BE887596
3DB04718
3E875947
BEB2F827
3EA62FCC
3F127F44
BEB130E6
BDBC2085
3CBBBF29
BEF4DF0C
3E9F0E00
3EAC780D
BECF679E
3DD9F509
BE8F30E1
BE41FC67
BE002484
3EB610B5
BE458821
BEC1F9C1
BD578F9E
3E930A15
3E42D35C
BECAAA85
3D929EFC
BF026E47
BEFC93FE
BDBBEA92
BE3C5FE8
3DBC214E
BECF5009
BEC7D850
3D82C618
BEAB9233
BDB606AA
BD79E188
BEB65676
3CA99052
3EB06B4F
3E2760E8
3D840604
3E5F0AE5
3D223FAB
3E0967EC
BE98908F
3E290B70
3EDF7A69
3E4EC8E3
3E56B710
BE36AE3A
3E26A8C6
3EBCCB41
3E85E5E2
BDEEB2D1
BF0B7064
BE265E53
BE076D98
BE9DBC66
BEAD5AD4
BEC6BE1D
BE88A7B8
3E09579E
3D3690B6
BEF7145C
3EA71382
3EE39577
BD3B5FD8
3EEE8A54
BCE73F75
BE32009F
3E06CAAC
BF003D43
3EEF87D5
BEBFA94F
3E175C51
BEA4E03D
3EBD88EA
3DA62CE3
3E97E070
BE3C9815
3E1F792E
3AB90215
BE4CC865
3C34832A
3E917D8A
BE80170E
BEEFA3AC
BDAE9814
3E8AC67D
BD0B0AF6
3EB061CB
BE88F90D
BEA984A8
BDC5F5FE
BE811322
3EF805AD
BE33D5DC
3E1BABDD
3EC04EEE
3E56A21E
BF0F1529
3C925B4C
3E4DCA9C
3EBF4BA5
3E445B66
BE2CB0EF
BED5C960
3D7588E3
BEF74B33
3ED91DFC
3EB6DC53
3DD85BC7
BE3A1236
BEAFEE37
BE42318A
BDF38C04
3E23542D
3DA05F94
BEE3A2D6
3DF66780
BEBBF968
3EDB5B31
3EB20C94
BE65A7B7
BE69BCAD
BEF3EC49
BEA8E17F
3D3BFA4C
3E237CBB
BEEFA304
BE2BD5D6
3E2EA4A9
3E8035A6
BE8C3B82
3E883311
3E3F8056
3E3787F7
3EC5BC7A
BEC1D321
3DF21816
3E6C39D8
BF13D432
BD7DCCB4
BE3221C9
BE0E8322
BEEB984C
3ED969A4
BEAA80D6
3E5571B7
BEF9AAE3
3E90AAE4
3E98D5EC
3EC7FD0D
3E0DFB3C
BEABD8CC
BE70C932
3E05AC62
BE1F5A10
3ECEBA5A
3D9B2FA9
3E0F69DF
BD740789
BDE1E33C
3DED3EBA
3E34DC73
BEC43541
BEA43665
BDA49ED9
BF082A6F
BEB711E8
BEA4D188
BF138393
BDBDC238
3EE6D38F
BD2AF485
3EC58333
BED7A384
BDB252CE
BEE5CF61
3E6ACE46
BDD6E265
3EB81F9D
3E60671A
BD93D004
BA8F6E9D
3E7D0F1F
3E007CE9
BE5FE063
BE87B2C2
3DF560F0
3EA4B81E
3EC066FC
BF0E3BF0
BE9E567A
BC9649B9
3E33B3FE
BE61C2F7
BD05CDF0
BE9141E0
BDA8AD33
3EDF2A50
3E45568F
3C990265
BD623C00
3E6A7E88
3EFD411A
BE2EE2AF
3E707BE4
BE2354E3
BE07FD9D
3D01AA09
3EA2655D
BE208D2A
BE62202F
BE8F1BD8
3E862604
3F06AC90
3E9EC0C3
BF0A3C55
BECBE3AA
BE81050E
3E8DC3CE
BED9A155
BE2418EB
BF0CC088
BC17423C
BE7B873E
BDBCDCA2
BE8EEF1F
3E06D6F7
3ECDFE04
BE88DD0E
BDD8EEA1
BD7C6CB3
3E360C1E
BEEA4664
BE571F6C
BF1D3CA3
3E89504E
3E560E52
BDF9750F
BCFF525B
3E403516
3E54FFA1
3E80BCC5
3E86EB2A
BE82A5A4
BBC26B4A
BCB2DC96
BE373952
3EABF1CE
BEE950D8
BE9723B8
BEE3C6AB
3E2994E2
BE5292BE
3E1E8E67
3ED28E1D
3E3E7756
3ED227F5
3DA8C1F6
3DD7E73A
BEB8C32B
3ED6478C
BF0EC650
3E250799
BF049DB0
BDEB2321
3E81A24E
BEF80B32
BE2455C9
BE9176CD
BD8DDCA5
3E8A85B0
3E4663AC
BECD3EB7
3DCC2133
BEADD0C5
BF20254F
3A1B738E
3E8BE25D
BEEB5361
3E8F0977
3F003FDA
BEDE8FAD
BE12F9DE
BE7DFCCF
3E73DF02
BE5AC1BE
3EE37EF9
3E0F9922
3EA99179
BCF735C2
3E027B8B
3E51C194
BC14FCE7
3D475361
3EEBD797
BEB324C5
BDA11B1E
3EC0F72A
BE7D4BD6
3DC3491E
BDCF67E7
BEA0E04A
BD24B810
3E24A318
BE9CDEE3
BEECED26
3ED5A452
3EB85BB6
3E8858D7
3EC635FB
3D8661C9
3E6D6382
3EED76EE
3EDC995E
3EF8633F
3E4C282C
BE965B7B
3EC8250A
BE69ACD1
BEFDD48E
BD68E5B7
BEAFB11C
3ED91E00
BEA97647
3E9B653B
3EA36BA0
BEE4E033
BE9B73C7
3E6E235F
BDD97694
3EAA1DA1
BE484465
3ED9E4F4
3E5FE770
BE82EF1F
BE9FE9FE
3E3D233B
BEC9B1FE
BEFFCF05
BD9F2B67
BEFFAF38
3D8C87C0
BEB02928
3EEDF86B
BA627E0F
BEBEE812
3E095F67
3E32D0D8
BED784D2
BEE9198E
3EA2DD56
3DB17D28
BEA6B639
3E4C5345
3DF25C9C
3ECE24E1
3DED5164
3E9E556A
BE7D97E2
3D830DB7
BDAF1470
BE806EE6
3EC0A2D5
BE8799D4
3EB1D9E4
BEDFD080
BDF1C087
3C29D049
BEA699CB
BDE6C68E
3EDEE184
BEA64CAC
3EEA225C
BED307A5
BEC49855
BD9ED868
BE94DD76
3E8797AE
BEBBB822
BE7FB3CB
3E7277D8
3ECAABCA
3E9DDA49
3EF44BC2
3E9FAC13
3DD5C72C
3F09A2EF
BDA9C03D
BE3252DB
BEB8E110
3E9A3055
3D7A9C13
BE614F9F
3E01642D
3E866C38
BEC75FB0
3E424611
BEB368C5
3DFC9BC7
3EBA893D
3D175099
3D708EC3
BEEE066E
BCA27F1B
3E0798ED
BEAD620D
3EDCC290
3EB792F3
3EF300BD
BEC5DAFB
BEAEBA82
3E8F6F78
BECF363E
BEEF0A1C
3E93D2ED
3E9E66B7
3CDC98F3
3E600164
BEBC509F
3E857926
3E9EAADC
3ECE5DE1
BE4AA8AF
BED5D11F
3CE2888B
BEDE66D2
BE9C92EF
BE90B46F
BE91CF9A
3EA29370
BED63795
3E80E574
BDFF275D
BEC2A851
BE837055
BEF3C31E
BE4DDC0A
BE9F0549
3ECC29FF
BE66BA6B
BE437784
BED1A03B
BED13434
BDC22475
BEBE0667
3EC5ECF6
BE936C2A
3E14A1E3
3DC8A9A2
BE284F5A
BDC8A4DD
BDBCD9C0
BE85C99D
3E510499
BC20F1E8
3E885EEC
3E8A1B7B
3E3CCB04
3EF7AA7D
3EF84BE1
3AF98237
BEDE80B1
3E72C3BD
3EC195FB
BEA06BAA
3EF6C9AD
3ECECA33
BC576CCE
BEA6465E
3EA003D4
3E8BA87F
BC36C955
3ECFD783
3EBBADC1
3ECB9644
BEECF616
3E81D191
BEC7771F
3E3A8006
BE17FFF3
BD5CF660
BED4E934
3E84C997
3E3D2F2F
3E93991C
BE803DFC
BD484F3F
3D6C7630
3EDDCF25
BD873988
3D2EEB20
BD83E5E1
B805CC5D
BE60F726
BE3EF036
3E3E40EA
BE746BA6
BE909AB1
BEA699CE
BD7FCAF1
BEF04634
3EE4ED70
3EDAC7D3
3EDF7D74
3EA0675A
3EA5CB2F
3EF28F8E
3D891362
3EDE540D
3E1F9F23
3ED644E3
BDF52AE2
3E75C99D
3E36289D
BEDEB26C
3CE54244
3EDA086F
3C5457DC
BED723AE
3EB28C08
3EDEF2DB
3DFA1BF0
BE522E6B
BD614976
3ED14D25
3DF81BD0
BEAFADD8
BE991EB2
3EB74536
BE2A2CED
3E0525A4
3EBFEA52
BE70F6D6
3D10F967
3E97A0C0
BEDAF0D0
BE109B88
3E8A3DC5
3E0EA818
BE5401B8
BD97F5E8
3D6CD0FF
3E30950E
BEAC4001
BE8DFCE6
3E51AFE9
3E0536F1
BECDE56D
BE97FAC5
3E79F440
BF07CD97
BEA6A7C4
BDB652BD
BE1D3155
3E54B8DA
BDE726DE
3EFD77E7
3EB0FC50
3CE71F29
3E97C9DE
BEC4950B
BECD786D
3DFCA2F6
BE082DD9
3E09A580
BDA9562D
BD7C7425
3EFC65C7
BE9FE81E
BED7B3B7
BE5474B2
3DDF6373
3DD4CE3E
3EC24332
3E2D896A
3E8B0288
3E07B0C1
BDC6516E
BF0766DE
3EF7794F
BE101DDC
BE9A1D2C
BE31850C
3EC54424
3D6A2751
3EACCE55
3EFF54FE
BE2166CC
3E2F8B08
3CC2CB57
BED30A62
3E5B4495
3D948AEC
3E473C20
BED5ECC1
BE95E877
BEC78E99
3C9701DA
BE910544
BE5E1925
3CECD1F0
BDBF1A0C
3ECECB5A
BE61AFB3
BB831925
3E06AA08
BEB26514
BE2E4F33
BDF5F85A
BE2DBB38
BE8AE3E3
3DE52015
BD6EA656
BDBBDA36
BEB61361
3E775353
BE63F431
BEA543E8
3ED735DC
3E38C2A4
3D2778B5
3EECF42D
BDD82378
BEC6418B
3E1F3506
BC95AE1D
BE1B1473
3E718988
3EC6011F
BCA77128
BEDAB706
3DF7E78B
BED0B267
3EF36F1D
3EE26AE5
3E0E4EC8
3E35977D
3EDA5534
3E1103AE
3EB387A0
BEB31F29
3E975DA1
BE540867
BE0E50F5
3F1E7728
BBBE8866
3EE1320A
BEDF584E
BDB836A8
3E72501B
3E4A72C9
3EE159FE
3E421A28
BEDC882F
BEF2101E
BE89FA26
BE035EF4
BE882F3A
BEF297F2
BD63B37E
3EDC4CAA
BE3E14C5
BE8E2D37
3EF76223
BE735724
3EFBB10E
BDF1A5F2
3E71FC74
3E9640B1
3EDEFE21
3E76841A
3F0AAC75
3E81A06E
3F1D3A06
BDB2D0BD
3E1B25AC
BE5D7790
BEC5756D
3DFD41FA
3E371EA3
3EA40537
BE84128C
BAF4AC0F
BE246A43
BEBD5B65
BC504817
3E7FB0D5
3E8CAF74
BEB08719
BEB2D5F5
BD401DC8
3EAC852F
BE8E21A0
3E881D27
3EA233A9
BE8CEFE0
3DC0F500
BE304902
BE533C0F
3DC2B1A6
BE8BE9C9
3F166E16
3E80E5E6
3EBAB979
3EC2FCC1
3EC68C15
BD6CAC81
BEB4A827
BF0B6F6D
BF09BE73
3E0BEB11
3E085C03
BE961A75
BDA95BC9
BE07ACED
3E8AEF18
BD6BE4F6
BDFF925F
3E231FEF
BEFF586D
BE96B562
BEC7878B
BF42B749
BEBF8D90
BF3612E2
BF1A5A88
3E805AFD
3D25B6F9
BEBE707E
BE6DC53C
BD709B59
BD28E7EB
BEAB3025
3EFA2193
BE604A1C
BEF2340E
3EAA4207
3DFE4BA3
BEF6B863
3E83B6C5
3E6EA97C
BEB137AD
3EA72113
BE317848
3E4D6D49
BEB412E7
3EB56F1B
3D882CF5
BE6D0416
BE03733E
BE0BEA5C
BE5AA6E7
BF518BF0
BF4F2A6B
BF105887
BF3CFFBE
BF31F0F2
BE839DDE
3ECE61F2
BE1953DF
3D87D53F
BE760C83
3E8F3FB8
3E540B9A
BE97B869
BF00FD6A
3E35A21B
BECDCED1
3EAAD7EF
3F0B6B82
BED90837
3E479DCD
3EE0E1EA
3E21338C
3E786E35
3CB996C5
3EC67DFE
3E57D765
BED7321D
BEA1F9F7
BE04E01F
BF369431
BF4007EB
BE8D9210
BF335051
BE4C3CFD
3E7879EC
BEB25E3C
3E9DC4B9
3E29B816
BC26B4A0
BE16B888
3EC3224E
BE827696
BED1D678
BE9F9D83
BDF0507A
3EBDE7E0
BE4DB728
BE9143CA
3E87EB30
BE49681B
3E511B82
3EABD9D2
BED911D3
3D4746B1
BC6CDA1E
3F1C4FA7
BDAB41B2
3B0F846D
BEDAEA7B
BCB116F9
BE7BD6EF
BEA64529
BE118DEF
3D74F377
3E9CC17D
BEAB0AF9
3E5C80FD
3DCF4144
3E9AE031
BE941A69
3F04CD84
3E8F0F21
3D872870
BEB4AC70
3ECC98F9
3EC0C500
3ED7BB5C
BE267EDC
3EE83BC8
3E33C665
BDAADCAB
3E5C283A
3E537CCF
3E842986
BD518D76
3EE6D4CD
3CB1F2F7
BDCE01EC
BEAEF4AA
3DA3DBA7
BE9EEAD6
3EA31642
BEEB04E4
3DF0FCF8
BDDF181B
3EAECA29
3E867CAB
BEC66095
BCDEE92F
3DD8D188
BE2279D0
3D7A252A
BD26BFF3
3EC07743
BD310378
BD8FD08D
3DD5865F
BE1B9339
BD97DB03
3DBE3E01
BE3F3E2C
BE8BD3F6
BDB30404
3E86D7D1
3E4B3EA1
3E26A996
3DCCE9CB
BEE02317
BEF46FFA
3EEFE348
3EA615F3
BE641369
3E9F603D
3EBB5B8F
3EBFD711
BEA0740D
3E2F9AF8
3D92CB14
BEA91CED
BEE0FBA5
BEA57EE7
3D5B3454
3DD957CD
3E48D980
BD964869
BED93965
3EA46A57
BEBF5812
3E264FDB
BC2EE9F8
3E61FDE5
3E983F0C
3E1A23B3
BE819430
3E02BE92
BE93328F
3E7BAF03
BE889416
BE35385C
3EA4D276
BE8989B7
BEB27023
BECED4D1
BEEAE29E
BF11CE18
3E8C75F4
BF01349F
BE2D28D7
BEA83E38
BE9C9D53
3E5B17AD
3E996F25
BE82A540
3DF429EE
3DC59719
3E48E878
3E223191
3C1BBCF5
3E3AAE44
BE1E5AA8
BEA0146C
3E25B30B
BEAC551B
3E4D3198
3E777A05
3E406035
3EC14DB9
3D3E1778
3EEA58E6
BE959DB4
BDE7631B
BE889AA7
BE3FBA52
BE14A59C
BEF2901B
BF113BA6
BF1CC79F
BF033C99
BF5B8BF1
BF53DA29
BF22F0B8
BF06CCD7
BE9F041E
BE41FF2E
3D7956B3
3E2B02EA
3E912147
BE511F1A
BDDF6988
3E419B83
3D51AFF6
BD3ACCA0
BE6ED077
3DED586B
BEC6BD2B
BED5B563
BE239A40
3F006C38
3E26AAFA
BDB531B3
BE89A101
3EFA128E
BE002ADC
BE5CC108
BEE14C63
BE76DDB4
BE30D1D9
BDF8CB23
BF1B4BCF
BEF06120
BEB120BD
BE345862
BEB81E8A
BEBD8000
BDD99B3A
3DD8821A
3EBD8780
BE3A545A
3EB7B1B6
BE852FE1
BEEA1DBF
BE0EAC28
3E258A33
BDEA7009
3EFEBB05
3E943D39
3BD99964
BD071279
3EB7B169
BEAC05AA
3DC75C65
3ED52A92
BF08B1E9
BF1F69F0
BE8E9521
BE352052
3E8126F0
3BC183C3
3D28EDB0
BEC08E37
3E0CA919
3D9EF135
BE8FE82F
3C9AC1B8
3E135668
3E3AA7C4
BE8C5DD6
3DF008EA
BEDA4108
BEF25F38
3EA598E4
BEA4B956
BDC53650
BB513FF9
3DC93053
BCA40A6C
BE017F05
BEC0A885
3E907718
BE9394CF
BE6FBAD2
BD982F44
BEB7C32F
BDDB40F6
3E3B2D1E
3D459719
3E7826E7
BD0A4C6F
BEA77B00
BE20A471
BDD62520
3D319843
3E6D384E
3E0C7DEC
BEBD30A7
3CB017F6
BE24D1F7
BE58583D
BEC0733A
BD3FE528
BE2DE819
3EE79BE6
3E1E3C7C
3E959FF8
BC53F911
BE8EBB63
BE9FE7EF
3EB0BC31
BE0DA675
3F00971A
3EEF660B
3E62272F
BDBB84A6
3E4CDC23
3E03A42F
3EA30D12
BE16B5C0
BE06E9C9
BEBFE275
BDD9B8BE
3E0DC210
BD2875A0
3EBD53DB
BD8E8625
BEDC197E
3EF09488
3EF4A7A1
BD826528
BE6EFE57
BECA4112
3ECE2DEC
3E0BD740
BEE75CD4
BD0ACC0C
BE4CE4F8
BC63E151
3E8CB86E
3D706E93
BE116378
3F1B2816
BE269DF9
3ED12791
BE24FAC1
3DB9B5A6
3DDFE8E1
3E9D7DF5
BDD4FE7A
BEDC3AFF
BE91291A
BD7850C4
BE0C3CCE
3EB8737D
3EC5342D
BE8EBA82
BE28DEE7
3EF365A3
BE9CEA44
BE3D25F5
BD9AD638
BC1EF7A7
BD6D9BE5
BE50F6A0
BEE3C71A
3C29FC53
3ECA8FB0
3D947EA8
3EFE54D3
BBE8CE8B
3E469248
BEB2CD1C
3B8AF592
BEBA2ADE
BF01C18F
3E575636
3E81A1B7
3E80F020
3E18441B
BEB513BC
3EA336F6
3ECBB2F8
3D9C23C5
BEA5F916
3E94F3F4
BCC3FF33
BDD53B4B
BEBEFDBC
BD3CC2AE
3DCC17C3
BD2CC2BC
3ECB0AF3
BEBBBCDA
3EE8CBB0
BE505C9E
BE7017EF
BE513569
3EAE7AC1
BDAB7557
BE6E7763
3DDEDEB3
BE27091D
BD685554
BF02C3D9
BC799583
3CF11516
3EA0C99A
BE1BA902
BE2E6DFA
BD52E799
BC70365E
BEB69EDE
BE0F94C8
BEDB6DC7
BE3A1038
BEB2CB2B
3D42FDFC
3E5B6CD2
BE600C95
3F049D0A
BE267FF6
3E8C1E1B
3ED2C3AF
BD77EB29
3E0B46F7
BEBF9E17
BC226443
3EC818EE
BEE239E7
3EFBBDE3
BE968DE1
3D313FA9
BE3DB220
3DDC2664
3D650DBC
3EB4F34C
BEC1A933
BE2AFB3B
BE9DB6B3
BD787D55
3E90C0C5
3E38C7F7
3DA9F7A8
BEB709A0
3E810419
3ECFCCAC
BE4BD9DF
BE456042
3DF84D92
3DB01C6B
BE2393EE
3EE8104B
BE43A4C3
BE93F683
BE63BF80
3EB07559
BE953887
3E81BF0F
3E8CA1A0
BE962ACA
3E391A83
3ED61925
3E7AA851
3EF897AD
3B4CD1D5
BE5FA567
3EAC2053
3DF457B3
3DE85E30
BEF18C67
BEE1EA94
BDD49EBE
3E55AF23
3E11267E
3D1E4184
BD21E6DB
3D2F6C34
3EA9928C
3E844DA9
BEB1523B
BDD1A735
BEE361F1
BEDB72E0
3E3F6E10
BE8FAA4B
BE1BA31C
3D17D10D
BDCB39E2
BED8F1A5
BE5D1AFF
3DD43D8A
3E87A7F9
BE9B6810
BE207DA5
3E81F09B
3E4C9144
3DFF9493
3DB84381
BE3942E2
BE86034F
3DF211E6
BDFA3005
3E09AA03
BE3147EA
BEF5F8AE
BEA75C4E
3E9329D1
3D8041DA
BEFD6DB1
3D41B7FC
3E624D4D
BDBEBB4F
3DD85B76
3E98EF64
BECFBBC0
3EA617C2
BEB3FE74
3E0C0831
BE8A2B46
BE8A4BBA
3ED8E9CB
3EABF0CC
3EFE3645
BEC265BB
BEA44E07
3E8026E0
3EA3E2E7
3E9B971A
BE23907F
BEB8BE83
BEEA6BF2
3EEA3744
3C755872
3E329DD5
BE5D70FB
3D0C0E46
3EB1EB16
BEDBA61C
BECE180F
3EB586BA
3DF5E7BB
3EA49F80
BE7716AA
BE8E38C6
3DEF4BDB
BE15573D
BEE7D0A8
3E88BD52
3EFC306B
BE60F52F
3EFEAAF0
3ED51FD2
BEC489C8
3EFCE135
BEED45E6
BE51AF76
3E7A11FA
3EB692C8
BECD4226
BED53884
3EFB57AA
BEBB959F
BEEEEDBB
BBF48578
3E9B06D2
BE3ADB2C
BEE9C6D9
3E2FA2BB
BDB4A1C8
BEACBD77
3CB14984
BEFAC850
3EE93A1A
3E880B35
BE8C2F44
3D9BBFA1
BEBB6E43
BE51C814
BE13A967
BEBC4326
3D9E9E94
BE168B27
BEE72354
3E464460
BE1CB30F
BED41E3D
3EFC524D
BED1402B
3EE03093
BED6A084
BEA74BA5
3ED7656D
BE89E845
BE844146
BC62A5E8
BED30CFB
3D9EDC3C
3CFB90D0
3E6B14E5
3EE85A3B
3E22D5BF
BE85F366
3EDF9032
3DA1C2E3
BF023927
BE989452
BE97E7CE
BEAF2474
3C56D8BF
3D7B069C
BE5446EC
BED18FED
3ED54CF0
BE174F86
3E9FDCF0
BE548084
BD33B539
3EA4A3EB
BE08F78B
BE153EDC
3EA718CA
3C613D32
BDFB54E3
BEBCB20C
3E75EB9D
3E6213C9
BEDCA2F6
BE3BD563
BE5B68AD
3EA72116
BEB99FF5
3E90A46E
BEFE6330
BEA6076A
3BFB5A7F
BECB7578
BD9ADF21
3E69A324
BE6BE5D3
3EE10D03
BE4BF68D
3DC30835
BECA3682
BE5BDF24
3EDAB1EC
3E8AD5AB
BE0974FA
BE8B1FEB
BD0A7696
3E265BFE
3BB00368
BE3445FB
BDD1C418
BEBEB70C
3D06286E
BEB74C50
3EA09042
3E3DF72C
BE54123B
BF1F2F98
BDE2C3E5
3D8E64B2
3EC898CE
3DE1006E
3EAB86E4
BD65EB31
3E65AF29
BE71D170
BE98CCAF
3F131E69
BE2C1BB9
3D7FBB51
3C85AB05
BEAA2CFA
3DF55150
BDC94BF4
BF0DAB61
BEF3D988
3E2F7CA4
BD3A6414
3E7997FA
3C28F770
BE6E406A
BC39112E
3D094EC9
3E3A39D9
BDE53A67
BEB7EB1F
BEBB647C
3E349E4C
BE870323
3EA463F5
BDD7700F
BE9E979B
BD8985D6
BE887A73
3E29685F
BE655087
3E1BE0D1
3EDAF102
BEC14714
3E113ABB
BE43AD70
3E38B0DE
3E98E256
3ED7BADF
BEA08F2F
3F0602E4
BEE7A05F
3EB76941
3DCF5A38
BEDEC8C5
BD4C6AF8
3E42693F
BE2F2ECF
3ECB8B48
BEC7803E
3D0779A7
BEB03EAA
3DA826B8
BD3D3423
BD2EE5E1
BDD5D2D0
3EB38A5A
3E32B431
3EEAA0F7
BE969EF2
BDFECB4D
3F0554FF
3DE4EAC3
BE9B11BD
BE7A7279
BE561607
BBC90B77
3F11A5A4
BBF218B7
3CEF08CC
BEE83CBD
BE97A931
BDF099E1
3ED08A20
3E561177
BD430736
BD63968D
BE8463E4
3C9B0BF5
BE44A178
3E3C738A
BE1CD834
3D0214AD
BE6CCD89
3EA0D3E1
3F050C3A
3E7BE293
3E5F35F7
3E529A65
3D80B7C3
3E68C7FD
3EE6B021
BCE5BD5F
BE9E6890
BF0D6CFD
3E181E91
3E81C97E
3E1D883C
3E08BC1D
3E60C35A
3DC58EEB
BDEFC0D3
3EB03199
BEB5221D
BBC8FAB0
BC9C2CF2
BE6A8A46
3E980E86
3EF3F2AC
BEF2AAF3
BEAAAC35
3E36E62B
BDE4DECF
3E6B830D
3EF2F116
BE8F7128
3E7C8E12
3DE5C09F
3E14CEDF
BEE98A40
BF35027E
BEC4BD95
BF34DC1A
BE3F9A9A
3ED77454
3DF98004
BE07998E
BD938F0E
3DABA443
3E0D44DD
BE990163
BDFAFD47
BED6FD44
3EB4545C
BE988F9A
BC2015B5
3D1A4A13
3DFAA7A9
BE3B7EA5
3CF16060
3E2047C0
3B92CC20
BE9A79DA
BF0EABE8
BED59766
BF058A65
BF2C64AF
BE363114
BE841857
BF581636
BF243ED9
3E2F315A
3E8B1F0B
3EA6628C
3B79C8AE
BDA1177F
3E8B17B3
3E452D16
3EB6C596
BE4C2FC7
BEB2F4B4
3E947274
BB9F3692
BE49FA84
3EB4DC3A
3EA0C43A
3E9A4841
BDCFCF08
BD6B62BA
BEC7F126
3EBF0810
BF13FC62
BE0CA0A8
BF244338
BF417F79
BE48DF08
BF17EFF8
BECE3356
3CFF02AA
BF0D5F8B
3DCBFFE9
3F0D3391
3EABAD63
3E7CA270
BE28BD59
BE258E9A
BE62AFF9
3EA7F911
3E9ABCFC
BEE7834C
BE89EEF1
BEA865E5
BEE8B96A
3EA07AF5
BCA9EEB1
3ECEEF29
3E07D292
BE6B2831
BE89D265
BF18990C
BEA8A797
BF00EF1F
BF02E925
BF2FA7AD
BE9DB124
BE911899
3E088044
3E07F90E
3EA00292
BCAABCD8
3D8A123D
3E831B4B
BE75A166
3D83523D
3E81FAEF
BC05C53C
3EB805BE
BEB929F4
3CF35598
3EC232C9
BE2FE7BA
3E945B73
BEE93F58
BE012C5D
3DDA777B
3C6B7026
BE7EDE69
BEB08B11
3E11B50C
BCC7BB15
BE25E5BD
BE51FCD9
3E89E410
BDF2FC19
BE8FBFC0
BE6A06F1
3ED09CEB
3F0FBC28
3E8A6C17
BE8448DA
BDB7E3AA
BD6F2E71
BE86160A
3EA811C3
BE9F7889
BECAB160
BE510888
BEE5B882
BE813880
3E9B1525
3ED13092
3D96B625
3DC67ACB
3EE97B31
3EE7A57B
BE90F26E
BCCD5411
BE841202
3B4D5660
BE06036A
3E7E3F21
3E33C31E
BD0B8214
3E540153
BDB8A5A6
3EBBE953
3E66F403
3E94D7E4
3D31343B
3C0FD0C3
BE5383D6
BE1AD8EB
BE55DC4D
3CDC13C7
3EB33A33
BE939B45
B9B318C7
BED4A453
BE8C7B06
3E6FC72B
3ECB6698
BEAD5616
BE22A151
3D38D6AB
BEA8949C
BE53AA51
3E32FBA0
3D96684A
BE18F2DA
BEECE22A
3EC2AE91
BD8A4957
3F0D450A
BDA575F6
3EB58D8E
BF0EF4C9
BF0AA923
3DBD2FF1
3EEEC941
3EEA6A81
3BD4AE43
BE4A92AA
3EC30828
BE25E651
3D9CAAFC
3DE901DF
BBB00BCC
BEE68F63
3E53BD67
3E8E3EE2
3EB94485
3E297078
3EC2DC82
BEC7A704
BEDC7C71
3E9C9877
BEC06166
3E0E1C30
3BE49617
3ECBE5DA
3ED21CD8
BE003679
BEDCF6FB
3D9CD92C
3DEF7FB5
3EBDC6A3
3E1555CC
3EBFC3EB
3EAF564D
3EA080FD
BCD5912C
3EA1BB96
3E91AFB3
BE96B424
BED1F599
BE28FD1A
3EA3EE73
3E2F7920
BC3A40D9
3DD9E427
BE282CB9
BE921C0E
BEA55561
BEE631E8
BECAC220
BEC8DB85
BED421F6
3D8A46AB
3E9E01AC
3D54CB33
BD2902DE
3E7D61C7
3EBCC5F9
BCEBAE04
BE13D7C6
3E8D3DB1
3DB0EE14
BE8494AD
BDD703D8
3EF07E75
3E80A48C
3E85CC9A
3E70B6D8
3CA37154
3EEFC03C
3ED21895
3EE2D78E
3EAC7EC2
BD22FC4F
BE0E3ADC
BDF205AF
3E70C3D9
BDA2B0CF
BD4077DA
3EC4383B
3E2DFFBF
BDB321F3
3ED84FFB
BDB6A46C
BC83C8AD
BD8B6028
3DC97EA7
BED09D28
3DF65D1F
BEAB3AD7
3D91AE7E
BE95F98F
BD0239CC
3E035C0B
3D4F57A7
BDC19D74
BE07D79B
BE3DA5FC
BE8DA471
3EFEFA28
BE714B67
3EF0FF22
3ECFD725
BE78ED66
3D6C2AB1
3F0AE62A
BD2C2D85
BECC6816
BE2BA762
3E196306
3ED9D44B
BEA23C00
BE85BF96
3E9AD6E6
BE7B4E3A
3DDAC43C
3BEC1A70
3EC3A762
3E4EA94D
BEE2D6C8
3EF7AB9A
BE823B80
BE7374BC
BD8A8AE1
3EB95267
3EA7845F
3ECCBB6B
BE4F5BBE
BEDCFB65
3EC2B420
BEA188EA
3DB9EBDC
3ED7AD5F
3E64A25C
BB4427E3
BDA92D05
3E9F7451
3E2E6FA7
BE5D7F37
BE5281A0
BD6DC65C
BE1B564D
BE46CB3F
3E378BE5
BE95D302
BD14245F
BE4B6F63
3EA6B77F
BD6F6406
BEDB83BB
3ECBBDC2
BDB00658
BE42541E
BEA6E405
3EC58C85
BE8FD7CD
3EEA4DFF
3DCA03C5
BE1155F8
BEB66E83
3E255F28
BDB9CD08
BD150B7B
3CC6FDEB
BE9678B6
3E3D9F25
3E8F0D92
BE9633D8
3E871155
BDD27576
BC791885
BEAA3F61
3D9FE3B0
3DFD6FC0
3ED3B1C3
BF006ECD
BE8E6D66
BE44E0E1
3EAFC5C7
3E2502FC
BDFC02A2
3E7A8C37
BED10300
3E74F986
3EE26CD6
3EEF3428
3ED3C350
3EAEF4D3
3DF0E1B5
BE6587F2
3EF147DA
BE9B45C9
3E479EA4
BE2BA77D
3E8D1F24
BECED9A0
BE1A5C81
3E86B28E
BE61D119
BF041B80
BEF121B9
3E72354A
BE2D1DEF
3EA87BD0
BC6BA210
BE249313
3EB38A24
3E57311E
3E10D017
3E4772A7
BDE9C206
BEDC290D
3C98E326
3DBCE7E8
3ED46CA9
3C2007DD
BD084A01
3DFB0D52
BE96D730
3ECCC799
3E97C3E7
BEBC242A
BEC138B3
BD96FA32
3AEB5A57
BF1020C0
3D603A68
BF198D42
3EB55850
BECABD75
BEAE1A03
BEE7472D
3EDB06D8
3D35F4AF
3EC6B25B
BDB3695C
3EC1EDCD
3E748649
BEC077AF
3D3A9436
BC9AEE99
3D63423F
3DEA0BCA
3EEE1DC9
3F03F6E7
BE17029D
BDF39DF2
BD2D5EF9
3EC8F4F9
BDB7F1D1
BEAA01BD
3C498011
BCCFD2DC
BD9C59EE
BEB2A388
BEAC4B9A
3DC6AF97
BF02356E
BE6CB15B
3D7218B7
BEBDB0D3
BD6EA763
3DDF78A1
BEE3D757
3EF8AAF8
BB37BE48
BD057951
3EBA8177
BE879D62
3DBAC421
BDF4D402
3E14CFDE
BEEA8598
3EC6D949
3C98BEDE
BF056066
BEB98582
3E5B320C
BE43F3C5
3EE8FC8D
BEB70F6E
3DD0BED7
3DC0AC2D
3E7025E8
BEC13DD6
3EB0A29F
3EF4A325
3E8FD8B4
3EB4F53C
BE81A378
BE2439D8
3EF7143E
3E40D0B1
3EE5C13C
BEECC31A
3E322A40
BD5D4C0B
3B9B7897
3D17D89A
3E390229
BECFB9A1
3ED80D62
BE1B70E2
BEA5A965
3EB0D4AA
3EC3A71F
BE981889
BEF89CE8
3E04397A
3D0724B7
3EFA729E
3E9156D5
BEB33087
3DC658FA
3D06169A
BE579AC3
BD3FC273
3C362B35
BEDBF434
BE460547
3E840DE1
BDB84472
BE57DCCB
BD5C4E14
BE109FC0
BE3162FF
BEC27671
3E9C01E0
3EA9D9B8
3E226B51
BC5BEBB9
3EDA68B5
3DA73D41
3EACAD0E
BECA1120
BD93A472
3E659579
BE447CFA
BD6FE8FC
BE172629
3EAFD32C
BD8CDEA0
BEBA2A47
3EFCAC08
BEEF6E7C
3E2D0F77
BE5E42AB
BC6CD8DC
BEA3C6E8
BE162B14
3E959696
3EE046F0
3E86D8EB
BED6BB05
BDF01140
BEC3C5B6
BDC0C522
3AF67466
3ED8DD57
BE889D49
BEAF7F2B
BDB39D51
BEAC21D4
3E790F73
BE803ABF
BE6A9725
BEA85DC1
3EF2AA27
3DA3A6CE
3DE99865
BE3106E1
BD9CED9F
BEE8D11D
BD156E0B
BDAA3D7E
BED83F99
BEBC2606
3E4C9E59
3D813EDF
BE3FDBAB
BEE4CE66
BE157F7A
BE829765
3E9B1CAB
BDA22765
3DDB4818
3ED3FC01
3EA0ECF7
BECD9115
3EA83E64
BEE29704
BE6B2852
BE77BA8F
BE816822
BEE12A95
3D06ED0A
3C9F94BB
BE9073E1
3B429D9F
BECAC765
3EAB89A4
3EA9A4E6
3CD87435
3EC2204D
BE5211B7
3EE30889
3EE973BF
BD96CC2A
3E129838
3C91ED9E
3E75C2ED
3E4A7009
3EBBEAF0
3EF67240
3CCC7920
BE0CB83F
3E278119
BBE17FE2
BE9957CA
3E9E6F28
BE2EB9BC
BE958252
BEE55F53
3DAD9770
BD4B23EB
BEDCCCA8
BED11F78
BEFE45AC
BE27F0B1
3E05D562
BEC31935
BEA9CE8A
BD1F6AAF
3E1543A8
BEE703A6
3E872F88
3DE9C7CA
BEE9A07F
BE8CAEB1
BE5DFD63
3D672B02
3EE7BFA1
3EF5CAC4
BD0B38FE
3F067E66
3C66CD29
3E479281
BDD98542
3E7D4C41
3ECD8106
BE1DED5E
BEAA3946
BED4C4A9
BE1C2A67
3E951A47
3E025BB8
BABD7038
3EDD6C3C
3DF3448E
3EA4895A
3D7954EB
3E73BAF0
3EFFBCE7
BEE5F3C4
BD34B4DE
BEB752D7
3EBA5680
3F1067A0
BEA51A83
3F22E468
BE31ED1E
3D494615
3EDB5C44
BE9CBE15
3EF4F70B
3E8861C1
BBD8F5D0
3E73071B
BD556CE4
3D8F994B
3DE0CE0C
3E3618AD
3E504FE7
3E4918F7
BEECC9C2
BC83E3BA
BE777510
3B0A1746
BDB57C4E
3EC260B3
BE21A5EC
3F044EC5
3E67D8AE
BD763FC3
3F0D7415
3F1B7449
3D7C7DE5
3F04303C
3F1F0DA9
BC2F52D4
3EDAF984
BE85B673
3E85DFAC
3D603AD3
BDD38A49
3F11DB2A
3C769F9A
3F090747
3E777D37
3E8E2435
BE462AAF
BEA2DC0A
BD9D3240
BEF0DC62
3E9A51C5
BDB27ED8
BAC0FD8C
BEE01404
3EDB2ECC
3EF0AF6D
3F0804A4
BE4164A6
3EC217FB
3E0B481E
3E8F11EC
3F09A9F9
3E6F402A
3F17EE67
3EACCB9B
3E9040A8
3D6E7488
3E3A2D51
3EC9FEAF
BE1F896F
3ED31539
3F054365
BE79B853
BD4ABC51
3E927C4A
3E6ED586
BE95907A
BE882558
3ED74C93
3D8A30DB
BE863E30
3E66BF3E
3F00705B
3E9F30B2
3EA5D309
3EB5D990
3E04002C
3E9BEC57
BE3ACD4E
3E12D5EE
BCFD59FE
3ED8ACDC
3E129B93
3F3CDBDE
3F0B2B43
BDACD028
BB1B47F0
3E870C10
BE964214
BEF3972B
BEB6FFBA
BD2FC91B
BEFF2CD1
BE572DC9
3EC1B5A0
3ED58765
BED6DD6A
BEF8BAF3
BEBDF927
BEF857C7
3DE79F31
BDA01889
3E286A17
BD2926D5
BEE8C56F
BDB98C20
BDD8C587
3E0567C8
BE901398
3DC7AE72
BE795D70
3D71C9A7
BC93CF55
3E9DBC85
BE6CE238
3DE43691
BCBAAD45
3AA4FE52
3E324C1F
BEAFFF73
3E358BFB
3ED959C8
3E120C4A
3E677CF4
BE9E4211
BD981B9B
3DFA98AB
BE6205C9
BC815B14
3E82684D
BEBA0A31
BF2E318C
BF330EE3
3DA1E0FB
BE7D87EB
BEFC7351
BE5F3F3F
BF2F86D8
3CF30CD2
BE5E769A
BD64081D
BEE6C380
BF06C990
3CC403D0
3D70E7AF
BDED25FB
3E72A469
3DB068C1
BEBEEB20
3D5A17BE
3EA8A9DF
3EB40D40
BDCD47BF
BE0DAC0B
3D6303A6
3DBF354F
3EA82EAD
BEB192DA
3D8933A0
BF3BED8D
BE578903
BF66179D
BF0AE121
BF192E5D
BF150B6B
3D7012D2
BF3F7F2F
BF090A64
BDA0178A
BF143208
BEA75126
BC0B6E5E
BE459C49
BE41005A
BE974D1D
BEA547C9
BF12CF80
BEB40C19
3F012F21
BEA1D7BE
3E4A3FAB
3E8A040F
BEF62F82
BECB5D00
BEAF6676
3CBE004B
BE079089
BE06FC9C
BED4A901
BED2D3C8
BEFDB1F1
3E6AA06D
3DC0D1B7
BE8D7EBB
BE183AC6
BE1604E2
BF19B6A4
3E48B695
BE814680
BE7181B1
BEC9758E
BE012755
BE6E613C
BD991A33
BEF68003
BF05ADA6
BEFCF3B0
BEBB9EFE
BE9C2672
BEFFE1DA
BE43A803
3ECDAD61
3E8D5893
BE591A18
3E8C116B
BCC76585
BD7A14EA
BD9B4A9C
3E8E1CC4
3E58CBB6
BE862A6C
3E961845
BEE0C03E
3DB18520
BEB43B96
BF2CEA5B
BD6F84BD
3E0E546B
BEE47109
3DDB6772
3D708539
BEB32C01
BE0DC0E2
BE743E24
3EAC0160
3C4B6EFF
BE522A40
3EB65065
3E10AB50
BBAD6883
3EB8074D
3EDE0DB1
BE622A0B
BDB3F6F8
BEC0C3D9
BDCDA364
3C0443C7
BEC19115
BF00A38D
BDD736A6
3E5487C7
BEAFC8BD
BE8093AA
BF215210
3E00E82E
3DEC173D
BEA954AB
BDE0DEAA
BE380955
BE8D39E1
BE7B78FC
3EDE3C32
BE236629
3DD422B2
BE928D80
BEA2116D
BECD5FE0
3C424661
BEE435A2
3E832AB8
3EEE27DA
3E912FB5
3DB9ED54
BD9E7727
BD46FAAB
3EA1BAE1
3DC7C676
BEBE314D
BEA3B11C
3DCE19E1
BEA4A82E
BC67A312
BD6B7C86
BCB9F7DE
BEBEA8B2
3F05D461
3C2CECC8
BE78138E
BE43756B
3E23B40B
BE1923A3
BD542932
3D61E802
3E2A6A15
BEF84197
3E8B7E1C
3EC4DAF8
BEA327A7
BE55C85A
3E75B70D
3D7D52C1
BF0BE3C3
BA0B8A0C
BE250A3F
3C3E5E0A
BE2409EC
3DD5C217
BE7FBE12
BEEEAC35
BE951A9E
BF200D94
3E2B55C7
3E81961A
BE5ECA1F
3DC94A54
3E225EF8
3EEA12EC
3ED9D4CB
3EA16C4D
BECA6CA4
BD3C8019
BECFAA80
3BE01803
3F027CDA
3EA09254
3E0B10A0
3E8D9EDB
BD826070
BE802BDF
BF6BD617
BED40252
BE2B712C
BEB038A6
BF02E678
BF32A05C
3DFFE154
BE4C6372
BE05B0EB
BE59A855
3EDEE4FA
BDA90166
3E49E6EF
3E878297
3E556ACB
3DD27F79
BE6A561C
BE441666
BE0AC77C
3EF8F56B
BEF54958
BD8600A3
BD60AFD9
BEA24D0A
3F11B401
BCFC1C10
3E49B42E
BEB79FF0
BF198C87
BE908C9A
BF152407
BF3B4E5D
BE5E1607
BEBBB11C
BEAA3FEE
BEB868A9
3E2C51B9
3B8D3C94
3EABB7D2
BDBB2B92
3F1E1D36
3EE62490
BE28CFE8
BD2F335F
3E065B42
3EEFC816
3EAEC691
3E3F786B
BEA0C2F5
BE9E6F75
3E3B6A2C
BE522765
3E8F5DEB
BE996E01
BE58D0F4
BE14B2E0
BE31AE92
BEBCB5C2
BEE83D72
BD624BBA
BE3CA53E
BF0E8584
3E9F7EF9
3E9E1BE3
3EC65A2C
3C5D5256
3EAD5787
3D881EA5
BE1C6251
3EEFA83C
3C4E790A
3F024D15
3E653B5F
3E77FC1F
BE8995F1
BEAD4145
3E04C702
BEE2EEC4
3EB4AE5D
3ED90D43
BD7607DF
3E27BE3A
BED30A9F
3E823A37
3DA96DD2
BD1C3C26
3DA89961
BE037084
3E2CA58F
3E213C1F
3F158F8F
3DDA64D0
3EDD0E38
3E81B241
3E9F6DF6
3D4C31ED
3DA3B4DB
3EABA25D
3E28CE26
BD1617EA
3E6AC62D
BED8DEA0
BE6C64D5
BE525DD1
3E7BFA9D
BC8602E4
BD0520D1
BD12799A
3E53E158
BD8AEF47
BE6A51B4
3E899F5B
3EDDD1AC
BDF90661
3E91B970
3E5AEB08
3ED6C0A8
BD0F6BE3
3EDC7BEE
BD3CD035
3EA4654E
BE065853
BCB19C5A
BDAC3380
BE47E868
BEB3FD00
BD60DCD5
3E364B88
BEC03746
BEE25908
3EFB9192
3E71ACCA
BED0E630
BE7D5440
BEEB11E2
3EC830FB
3EA8DD4A
3DC92139
BE3CAFC1
BE494FFD
3ED3F43E
3E80E414
BE2CAB75
3E943003
3E63EFF2
3E91B121
3F165CDA
BDE8CD06
3EE13D35
3E184D19
3A08A7DA
3C1F7EB6
3ED5394A
BD134ACB
3C1FDD15
BE663A6A
3EB03B6E
3EE3562C
3EAF8D50
3ED487CA
3EF9559A
3EA9BE78
3E1D8BAB
BEC639E3
BEA504DF
3E9E79F5
3F14467F
3EEF95B0
BE9484F6
BDF0F6A0
BDA236EA
3F0B5D8B
3C1939F8
BE9E4C30
3E497855
BE11FA91
3ED1B970
3DAEC8F1
BDFC14FC
3D80ACE9
BF1F4A86
3BECC236
BEEB7A0F
BEEDD78B
BE8BAE87
3D7D1D12
BE695168
BEE0A5FD
3B83A033
BEC5979F
3EF44414
3C91B56A
3F0364F9
3E7E0A48
3E87D38E
BE43C855
3C9C58FC
3E0D40D3
3EE8CB37
3D796597
3E3CA892
3F084A2B
3D3FED8C
BE6D33ED
BEC6741C
3ED45DC1
BEA68C91
3E66B625
BE7428C7
3D2C9EFA
3E1FA5D9
3C8AD221
BE75398A
3E6943CD
3D88EF93
BCBB4D7E
BE598428
3EAD4295
3D1D5E2F
3E95FE25
3EF06F95
3D334A95
BE345D78
3EFB5D1E
BE581161
3F01AF3F
3F0F4D79
3E408935
3D2B5D97
3EC75E74
3EE0BA7A
3EDA4CA2
3E2A50F8
BE804A1C
BEF53D61
3E66EAE3
BEA36160
BE0A89C0
3E9DE89C
3E76721E
BEDF7C17
BC55FF10
BE6AD0D8
BE3A791B
BE92F376
3EACDBED
3E970E9B
3A142338
3E347256
BE2E0B3A
BE5A7979
3E015D9F
3EAAB526
3CD66963
BBF11806
3EF5BC2D
BDB63B40
BD5EC5F4
BCF91ED0
3EA2160E
BE7E8958
BE169446
3E718599
3EEC27C1
3E4A32F4
3EA834CF
3E937993
3EFBADAC
BE79B18F
3DCF6E32
3E7190E6
BE39614B
BED30A9B
BEFCA00D
3E0C259B
BE4BFC22
3EB03C26
BD8B5B70
3E9A48E9
3CA16E0F
3E87C944
BED00051
BEB3557A
3DE92FBF
3E301677
3E3D90FD
3DE500C8
BECCE8EE
BEBAF131
BEE68192
3EBBADB3
BE0BEF8D
BDB7339B
3DB0FF1E
BE3892EF
BEC21279
BD9EA309
BEC9B56D
BEC60452
3E36FBD9
3E544C38
3EB2C421
3EFECD47
3E971B81
3EB62414
3E09C029
BECEE291
3E4CBFE0
BEDDFE80
3ECB69D1
BE8F45AB
3EA9D6B5
3EFB50B8
BE062C13
BD60AD6F
3E22EFDB
BEE962A4
BEE70B5E
3E826DBA
BEA6FB82
BECFFC22
3DF030A7
3D12DBF5
3BB5ACF6
BE977924
3EB59BB9
3E0157C0
3E01BC2D
3EEBE649
3E754F1D
BE4747F3
3E2C18D0
3DB5B0BC
BE49A6BC
BD043EA4
BD3C8F17
3EE3C003
3D831579
BEB15098
BEF80185
BD06FEA7
BDFDF0AC
3EAD2B83
BD51A529
3E72ED50
BE5B7494
BEC6623F
3E91CAAC
BE2AC4FF
3EBA99B7
3EE95707
BD9A3F03
BCB1224C
BC4F4E87
3EDB96E5
3E3AE96F
BE21BD76
3D621625
BE435A6B
BE4934F0
BE51C8F1
3DEAE389
3EF34E69
3ECD685F
3EE10F77
BD25E1F7
BE05C24C
3ECC8A92
3F0B2A78
3D1FAE00
3ED6617C
BBA5134A
3EBE2138
3E5BDDEF
3ECF7E11
3D8F01E1
3EF7FDCC
BEF87E39
BE13789E
BE41071D
3EBB54B4
BE4D70CC
3E6A2468
BE211FC1
3E92DCE0
3E215231
BEF342C2
BEBCC649
BE937F0D
BE2A3C64
BD52FBD6
3D410CC0
3F030422
BC6B5B2D
BB7BD92A
3EF39B16
3EE8FE69
3EC8D96C
3EC22A22
3EE869D0
BE32009F
3E45A195
BDFC5302
BECE97B2
BE5471B4
BEACA49A
3DD1CEF2
BE5707B9
BE8DB74D
3EE4F48B
3D761E4F
BEE9A983
BE820CDA
BE5B5774
BDEAFAEB
BEEF2DF8
3EE273A7
BDBA2EDD
BE9F5526
BE884CA3
3EBFCC04
3E6A6634
3E8F5544
3E837BAB
3F13CC46
BE9E6596
3E0FECB5
3ED0771E
3EBBB52F
BE006325
3E22BC58
3ED00952
3E9DAFEF
3EB25CD2
3EDDFAD1
BEC510BC
BED41663
3D9DE820
BDDFABB2
BE4E5A5E
3D1AB269
3EE641A2
BE22A851
3E90EAA8
BE85721C
3E6AC146
3EB89D10
BE5D652F
BE6838CE
3F06DD1E
BE40CA6D
3E950E74
3DA52D81
3F0DA57F
3E140486
3E8C5458
BDA60766
BCFA08DB
3D7144CC
3EA63624
BDC91362
BEF9DDF4
3E233DC4
BEA5EAFC
BF0DF839
3E749130
BDA2DC1E
BEC19122
BDFFBB44
3EA511D6
BDA5940E
3ED57DB5
3E8CFDCF
3E857998
3E6B1C5E
BECE10D3
3C61BECC
BD716ADC
BEF6EA7B
BDD1EBD6
BDB75064
BD9B4BEC
BD86D755
BEAE32FE
3E523C21
BE34A403
3EB5979C
3DBBD5CF
BE851086
BEE87F56
BE584DC0
BCDF33D8
BF06D413
BEC35E78
3ED5E94E
BECEED6E
3EF2E5A5
BE01549B
BE90A04D
BE1FF9A8
BEA34D24
3E02B3FB
BE7A2AAC
3EE1B255
BE6E461B
3E8D6D2E
3E5DE501
3DF509DA
BE8F6775
BF0AC056
BDBC31C5
3EB43703
3E01B43C
BE89B201
BE5D440D
BE5C41A7
BECFE546
3DF5D801
3E131E0C
BEACFDED
3D1EC7BC
BEDCEC7E
3EED4AE8
3E8F19E0
BE07A9F7
3EE161E8
3EBD70AE
BE31F8E4
BE69D6FE
BED9F9AD
3E278B95
BD5BA329
3D819122
3E6248D1
BE55F274
BF1E36D2
3E1B54E9
BE39320E
BED5E694
BD26020D
3E5870E1
3E88AE72
3D87E3FA
BE046F2A
3B0F190D
BE54A714
BE2C4D1C
BCDE1742
BF2A73AD
BEBAE2FF
BF073EE6
3E5D88EA
BD2E1E06
BEFA66DF
BB61AFB3
3E9DBD0B
3ED2E2A1
BDF78657
BEB8A142
BEA5AC15
BE4A2000
3DB149BA
3DB71F1B
BF16CACA
3DAE1E56
BE2D2F7F
3DCB2208
3EBC5BEC
3E912326
BD75A65A
BE8CCFF2
BE0EA68C
3EAA02BF
BE22859C
BCE653BC
BE486EF0
3DC02752
BF0FF50E
BEC2D4C0
3EB9EE09
BDAF3BA7
BEA22B64
3D9C8A45
3EB26CCF
BEBA6125
BEDE7DBE
3D9B13B7
BF0DEFF8
BEA3EA41
3DA91C9C
BEA6341C
3E5B0F28
3E089346
BE39B3A2
BE3141D6
3C774836
BE3E4530
3C832C3A
BE3E9596
BEAA6CD3
3EC6A540
BE7B6022
BDAD02CD
3EA7A1EE
3E2DC07D
BF0EA1B2
BE1C2162
3E0AFC05
BE812CD6
3D98B57B
BB6D4944
3E0D6466
3E11B047
BEFF69D8
BE16B08F
3E4A7B05
BF10710B
BECF3F42
BF0A926F
3DF78B0F
BEADB493
3DF5719C
3DA15740
3CCB2639
BDD1E937
3E637323
BDD92C71
BE56992D
BDD06F41
3DA4992F
BDD7A76C
BC5654A0
3EFC0CDF
3E77F8A2
BE693B2D
3E7A30F0
3ED4E33A
3E57FC8A
BDF5F146
BEB971AD
BEB2E390
3E8CD1D9
3E3CD757
BF22BF81
3EB2C571
BE1E69DC
3ED28B88
BE9E9A55
3E3ED14D
BEBEBC8A
3E35E59C
BDA2D906
BD978614
BD072573
3E0FFCAC
BDC929D2
BE846859
3E99072B
3E0927B3
3EF5EC0F
3E07737E
3E9C78F4
BEBC926C
BE19DBDF
3DCB19DA
BD3258E3
BED042B7
3B35BE93
BEE3480E
BE0297A5
3E04B6A6
BDF6C856
BE32FCE9
3D20AEE7
3DBB09DC
BCA88921
3ED551B8
BDE7ECBB
BE3DA5E8
BE7D0105
BC125DD1
BE03E08E
BE563E95
BE7930ED
3E21E7FB
3DA05609
3E16253B
BCEEED89
3E6C110D
BEE19726
3ED00B5D
3EBD8779
3EA7F25B
BEDFEA37
BE8ED770
BD9E2387
BCCCA66C
BE430220
3EEC76E5
3E46A297
3EB59F83
3E9B89D3
BDD73E25
BCF6EA78
BE99BB82
BDA05F00
BE8B04B9
3E13FFBA
BF0CF7EB
BEE7E48A
3DD0FD71
3E76FF2D
BE6A0283
3CAD329E
3EF0D4E3
BD599E87
BDABE1D0
3D057C0B
BDFEE965
3E32F6B2
3D11D408
BE5DE45A
3D3FEC9A
BE08A8AA
BE02503C
3ECA06ED
3EBD6759
3EF582A0
BE7EE39A
3EDFA121
3EBC70AB
3F02A0F8
BE85AD2F
BD1A827D
BF27A803
BEA6D8C3
BEC524FC
3D4091F6
3D75520C
BC67F181
3D505964
3E96236C
BE849940
3F2C9E92
3E30BE0E
BE91B149
BE983F88
3E602455
3E333985
3D8D207A
BDD7923E
BE8801D9
3ECC2E45
3F15B394
3E82A198
BE2C4FC2
3ED0A486
3E397459
BD5C1E94
3EFC4652
BEF22776
BD6D2FC9
BD10D321
BE8983A2
BEA2AFA8
3E52A3BB
3EF4620B
3E05F90F
BE830D77
BE29D833
BE9A74E9
3F16D2B8
BD119107
BDF80B75
3ECF75FF
3EA59CD6
BC2933D6
BED22BDA
3D417CA2
BEA02DFE
3E1A33B0
3F0958C4
3DB70DC1
3E3BCB81
3F02C0BE
3F25E286
3F1434D6
3E9A7088
BE1BDDD4
3DA772F1
BEAD917D
BE44985F
BD892692
BED29B03
3EB00B49
3E36B7A3
3E3E78B9
3E7F6E61
BCC68697
BE86B477
BE42BFC7
3BB8305E
3EFEDE33
3CDA6B86
3E873AB3
3EC3D4A8
BE1C348C
BE734FD3
3ECC5FF5
3EEB3FE7
3DBC3CEF
3E91F88C
3EADD198
3EAEDDAD
BD86F13B
3EDB7A8E
3EB830D6
3E464BDF
BEAF53F4
BEBE9F9D
3E8C48E4
3D9F2D8D
BD4ABE4F
BEE6E4B7
3E3CA17E
BDFA072D
3EA9B637
3E1CC07B
BE814848
BECF3F4C
3D930729
BE1DEBF4
BC92EA53
3D735B77
3EBB3F31
BE816B9F
BDF77FD6
BE6DFCAD
3E496533
3DBEEB7E
BEDDB7B5
3EE881B5
BE219129
3F49FB7F
3ED234E8
BEBFC46A
3D34C0D2
BD0F2A25
BEF0C2EB
3E88D134
3C5E30A2
3E70AA07
3DFBE653
3F07A2ED
3E70E0E5
BE07C108
BDCCFE3E
BDDC6A2E
3E882BB0
BCF3D336
BDB6B915
BE2BD7BF
3EA26F97
3ECDB379
3EC55007
3E7FD637
BE30691F
3D30B5E0
3EE07CB7
3E6E0A77
3EE5B0BF
BEA083B7
3DED8A04
3E6111BB
3EA1578A
BE8520C0
3EAAC46E
BD823FAB
3E8492FC
BEC46DA1
3D9F9493
BE603A90
3E48657A
BEB4B8BF
BE78F946
BE1FF74C
BE05097D
3D71AF1F
3E596540
BEBCB29D
BEEE9A15
BEBCCB5F
BD209CC3
3EC68A93
BEA69015
3BF4681C
3E113E8F
BE65E5A9
3E99DA27
3C276D98
3EB238A1
BCDC0A57
BD2A549D
BE338A20
BEB5E8BE
BDF97F12
3E4B7C3C
BE721B92
BF014554
BE23AE47
BE77A56E
3D819BFC
3DCD854C
3EC9A9B5
3DF91F20
3EA3A98F
BE8B8E16
3EF94D51
BDE9C546
3EE636F4
BEC21181
BCEB6036
BEA58DEF
3E444E1B
BE150BCB
BE860DC5
3F0B842B
3EB29FF4
BE292BE5
3E6B9354
BE2F0337
BEACDA14
BEB86D07
3E3F5E8C
BE201451
BE8E6AC4
BEE8E57B
BF00169E
B99BC416
BEC29227
BE147F49
3E55A9D0
3E0FBDBB
3EE10E34
3DB91C08
BE7771D0
3E86A67F
3EA3D9D8
BE87211D
BEAE8D9E
3EA191E8
BDAE55CE
3DBE93AC
3EEC4535
3F08E2AF
3EC77828
3EE6424A
3EE37E2C
3E28C085
BEA37F4A
BDA4222C
3E0E2CB4
BEFBB99D
BC9A4957
BD9590A6
BA20AB06
3EA5DB15
3DAE96DF
3D33E575
BE26986B
3E51991A
3EC89187
BEED9EEC
BE200A54
3EAAC6E5
3E020283
3DC95FAB
3D8AED49
BDF85EB6
3E865079
3E2DF296
BE8D8CC1
BE524181
BDC33079
BE9EA507
BE80D4D2
BED5DC94
3EA48D34
BF21E5A6
BD4CCB55
BF159E29
BD12C443
BE0047E8
BEBF3139
BEDF0C8C
3EE333E2
3E827B33
3EEA576B
3D54A615
BE5004AB
BE5B035C
BE7B475C
BE9F542A
BE35A6B2
3DC7B6AE
BEFC7036
3ECFDCE3
BECED176
BD3E0C90
BE92C127
BF217DC1
BEB4867B
BDDB52E5
BED7BA5D
BD81BC48
BD8BE5B2
BE8532AF
3C7F597C
BDAEDF61
BDEFB82C
BE65B919
3D05E588
3EF08FC6
3E9A9B7C
3E9B1272
BECAE2DA
3E89CC0D
3D78B0D1
BEE38280
BE39A7AD
3EB713C5
BE22095A
3D9500C8
BEE8C469
3E1E6E44
BEB8DD90
BEF4ABA0
3D7DE508
BE2EAC2F
3E064F70
BF06F124
BE0560E3
BF0CF327
3D0A5AB2
3DEBC1D5
3D8A3CDD
BEA57D22
BED5B761
BE521258
3E64EAF9
3CFDBF7E
3E1D873D
BE2123D8
3D3195DA
BD080BB8
BEB3E242
3E159CB5
BE87D35F
3E5667AF
3E4E97AF
3D5ABD00
3D88F9CC
BEE9F715
BEBFD16E
3DE31E70
3E50DAF8
BE5100AA
3E362E5B
BE3B378D
3E289361
BE1E1C95
BE3D6854
BED70938
BE106799
3ED443B3
3E8827D9
3EFE325D
BEBC7BFE
3EB33995
BE41DEE2
3EC70A37
BDB9E010
3EF10BB0
BE89650E
3EE7BDA7
BD7FAE51
BDF51D4E
3DCA3005
3E306DB5
BED2137C
BE4C504F
BE8C705B
3E20683A
BE1FC0FB
BE171E1C
BE6BC29E
BEE5ADFF
3E1AA5BF
3EE5D9C9
BE047022
BE3728F7
BE482115
3E4731A4
BDB5C656
3E33A132
3DEF7066
BEA3E975
3E32AC97
3E81FE51
BEEA681B
3EF9C1EB
3E121116
BD4700F6
3EEACD9B
3EBFA37D
BDC489E0
BDD49B63
BE7B3F93
BEFE4099
BEDC28DB
BE1C5C79
BE46162F
BE4E3DF4
BEFD87A8
3E1C416B
3E1A2227
BE6BA00B
3E4C29B8
BE4DB9E2
BE8D8878
BEDA3469
3DFCF986
3CE075C1
3E8822B5
BEF0221B
BE999115
BDF47F3B
BE94AE64
3EBF8CEB
BEBB217E
BE7E2D04
3EB94ED6
3E8DE77F
3E5014FF
3EA42C65
3E1B216D
BEC8D43B
BE8F217E
3ED416F0
BEC078C2
BE46CD3D
BE6B5EF4
BD8A4229
3DD5C798
BE64211F
BED6D6DC
BE81508E
3D50A6FC
3E93EE69
3D4EB7D9
3E849134
3EAF870C
BEB1C645
BE69D884
3DBFC306
BEA80612
BD0D28DD
3EF1E584
BDF35463
BE243068
BEC96525
3E086F05
BE98AAC9
3EC47AAF
BE278063
BEF2EA64
3D30EFDD
BD2B0DCB
BE6FFCFC
BCDFEAEC
3D89CA84
3D475C80
3E74CF07
3F01819A
BEB09BB7
3F029C13
BEC4CD27
BDD7F280
3C804F7B
3EA86CF2
3EC5FC24
BE8C6291
3DF8D60A
3EFE3593
BCCFFDDA
BE9689DE
BEAAFADE
3EE07CFA
BEA53419
3D3FA97E
BE64733A
BE5F7EA2
BEAA4D49
BD0E51B8
BEBB265E
BC903B16
BCFBE879
3E331BE5
3ECEA6C5
3E1D2285
BECAC969
BD0009A6
BE745A59
3ED6AF4A
3DB02AFE
BDE0AEB1
3E7E7664
BA2137F4
3E6A6C13
BE59BE17
BE330E4A
3D811036
BD2FF26C
3ED06FCB
3D360759
3EDABFBA
BEC64C69
3E53092E
3EB41C03
BE72014E
BE9318FC
BED16F11
3B2DFA7A
BE056005
3D13D245
3DE310C1
3EA7D9F0
BEE15F64
BDFB7C42
3EA773DF
3EE3F0AA
3E92AB15
3D2D452D
BEA2A5F2
BD457901
3ED703EC
3DBA49F8
BE2E26D5
BD00DB92
BE8E453A
BCDEE858
3E540C20
3E7BD2AA
3ED73C53
3DE7AB25
BE63A87C
3EA517A4
3E36937D
BF13981B
3E02831E
BF0BDCF9
BEA6CE72
3E2B6AA5
BDDA55ED
3DB771AF
BD1BACEA
BE4100B1
3E05CA44
3DBE83C9
3E81B39E
BD99ACF2
BDCF826F
BE004AA2
3EF5AB4F
3E537CAE
3EEF67C9
3F03C2EC
BEA9BCA6
BEDB7FEE
BE3D90CE
BE4FB4C4
3C432300
BEF71E19
BEF3EC97
BDE7F547
3D6CCF87
BE960660
BEA99293
BE4E8563
BE88989B
3E870BC6
BE906131
BCAAB25B
3E92AA31
3EA8B451
BE9C5E9F
BE84E1C2
BEA54438
3E54617A
3E66BB3B
BEEC15D3
3CFDD808
3BBBB54D
3E15FD5C
3E33B477
BEBDB467
BE0E29FA
BDCE0462
BEC637AC
BE073EEE
3E50F18A
BDFA13DD
3E9F372C
3DE1EAA1
BE4127CE
BEA423FB
BE55EC5F
3E86DCF4
BB9E4D5E
3E106C01
BEEB2929
BDC94BF4
BF3A8B99
BD2300B6
BE2E77C8
BF0BE332
BF1C5FE9
3E7910EB
BD5F7B76
3F0AACE9
3E986427
3E26B137
3E38741B
BE7E6730
3F053D41
3EE62C02
BEBFC89F
BE43749B
BE296060
BE9BF5CD
3DD6A8D4
BF135BFD
3D0B4F03
3B7D793D
3EC659B6
BE783A83
3EDA803F
BEB6E81F
3E8C1D31
BE742B44
3D4C63A1
BF43796E
BF12A08B
3EDB142A
3E3D09FC
BBBE7297
BEB2ACEE
3EADB1B8
BDC8C678
3E23CA10
3ED2987F
3F18A741
3EE336A9
BEC35035
BED8DAE4
3ECD26CB
BEEA329A
BEB3F689
BEBEBEB1
BE591C45
BDDEF2C7
3EE2FB1A
3E13D8E7
BE4B7CAE
BC6733EC
BE9BEDFE
BEBC06C3
BE8B1FBC
BE7A46C6
BF1BFF87
3E13FEC1
BE667B66
BECE868A
3EC4FE66
BE71A76A
3EB18E28
BD4F4CA4
BD444B1E
3E6AEA4C
3E58CCC9
3E52E0F0
BE98F755
3D5C0A8D
3DADE3EE
BE5CE8EE
3D6E8EA4
BDEED03A
BE3A42F9
3EC46AD3
3E92AB8E
3EC0C042
BE0AF59F
3DCD4FD2
BE86F757
BD4A1D40
BEAFB801
BD5D3657
BE1970A7
BE94D7E0
3E8BCBB4
3D5CEC85
BE95FDC4
BED33516
3E365457
BEEB0098
BD66CBB1
3DF47171
BDC9A7B4
3DD1EFC4
BEE55377
3EDE6A3A
BE73B206
BE8B47CE
BD9F5713
3E883FFD
3D223620
BE99B57E
BDAD2E51
3EEE8192
3EF5AF84
BEA2E815
3ED15527
BDCC09D1
3E95A799
3ECFDBA7
BE00C6BB
3DB60AE9
BE068E6E
BED5EDAF
BE96231C
BE014390
3E9A3F9A
BE612627
BB6B1C43
3CA7674D
BE61D989
3E94C858
3EFBE7B3
3DE51D91
BDFAFEDA
BEF0F48B
3C0A979E
3DC21F44
BE424DB1
BECA2C0C
3DA6C079
3EE2F040
BE198068
3F1B0E76
3F152138
BE106D07
3F1128D5
BD2DA5A5
BE860FEB
3CC7032A
BD7BA12B
3ED11193
BD9E0B26
BEDDE4FB
BED60B37
BD36839A
BE05764D
3EACAF85
3E3D17AB
3E93C944
BE649393
3EE42AED
3DA348DA
BE706ED6
3D247C31
3EE36FF4
BE0967CB
BEAAB382
3E22EA96
3E518E8A
BDD618E9
BE089E8B
3E803226
3CCC11BC
3F116C18
BE732753
BE0F68C5
3E93AD0F
3E29D1CE
3D94317B
BDD55227
BE4475BE
3D8D7AB5
3EB382FF
BDE7C5C7
3E4AEEA0
BE68F4BD
3E632413
BC876A8D
3EEBCE71
3CA14270
3E867F4E
3ED13378
BED339DC
BEE0F26E
BCBB1BCA
BEFB12D7
BE342E19
3E557C04
3EA08008
3F1A1FA6
3EA0F0B0
3E7988B8
BD61E7B1
3EC2CA2C
3E0DACCD
3D05181D
BE98A8E6
3C46C0AF
BD6C4893
BEE601DE
BE8AF69E
3EF1D4A3
3E7D784B
BECA36E3
BE16389A
BD966FC9
BDC4E395
BED1146B
3ED27FA8
BE0266FD
3DB7891E
3E3501E2
BE7AFC7E
3DC88136
3D9025CD
3E5F304E
3EC8ED0F
BE86D128
BDE0B98C
BD070344
BEF5E00A
BF09C43A
BEA362DC
BD9181FB
BF041201
BF1AAC5A
BEC41DFA
BE0FD40A
3E4E40C8
3E93370A
3CA474BF
3EEEE477
3E71817C
BE741B1E
BECC6BC4
BEC6E7D9
3E44D819
3C074066
BE9B70DF
3E0412BB
3EEE8C33
3E9FB2BF
BE8A28A0
BEAC887C
3E0BA5C8
3F0EA297
3EA60EE9
BEABD6EF
BF1EC15D
BEA3D36F
3EBABD3C
BEBE8A89
BE87B176
3ECD17D3
BC93A7B2
BEA8EDCA
3EE1741A
3E60D7C5
3DD4373F
3E425BE0
BD119701
BECB8D86
3E3B2CAC
BE8DED3D
BE07D60F
3E955271
BE0FE494
BEC38364
BD0B8EDF
3E573AA8
3E99F41E
BE578A53
BDDAABE8
3E939EA7
BECAE1F3
3E091417
3E6A3352
BE7CDB8F
BDFA8BE0
3F04345F
BDDA3F8A
3EBA492C
BEF57AFB
3AC62E4D
3EBBF9F5
3D73C03C
3E6F7B54
3EB184FB
BE95E710
BE46B80F
3D7D2A7E
3E419752
BDB021EC
BE7C3DB9
3EE4C173
3EC4EACD
BE884806
3CCADF21
3F24B004
3D0BA85A
3EB8D053
BD766E01
BE11C758
BF00F31D
BE02A98C
3EDFCF7E
BEB41C96
BDD8F275
3F02A187
BEA8F41C
BE57783C
BE6A17AA
BEBC476C
BE26AB65
3E9D6D9D
3EF1D99A
3EA40D47
3D2B29E5
3EB3F99B
BEE978F3
3EB6D1C6
BD9EE526
3E79D396
BE0B2102
3EB59214
3EDAFFB7
BE50B3B3
3EA4DA0A
3ED988BB
3EC3E1E8
BEE941CB
3E523791
BDC56D78
3E055A26
3E97F07F
3E930F67
BE422113
3E95275F
BEC2BB5C
BE9DEB31
BED521A8
BCC8E516
BD3513F9
BEBD0D6B
3E801E3D
BE44EF7B
BEB9A0E7
3DA91D07
3EB54C01
3EFFEA48
3E11998C
3E86E591
3D3B34DA
3D625C31
3F1C8AC6
BEC40934
BEED84C2
BED39C92
3EC8B835
3F0CEFDB
3F06E4AD
3EA341E1
BD75EDA8
BEBAE6FB
BEA97427
BE178FE2
BEDF047C
3CCA2553
BE345953
BE88F5C9
3E19DC1B
BE65AFBD
3E14EFC5
BEAEBFF9
BD90D413
BDC8E6C4
BCDF3A22
3D935364
3EFF5F30
BE2C0C34
3DFA08B2
3E35FCF1
BEE18F99
3EDD95DD
3F026BBA
3F18CAE8
BE974EE2
3F290EBC
BEDF8BE9
3E4F0F75
3E3F580B
3E497064
BD6736F6
BB4C01CC
BE8F22CE
3EA8A684
3EEAC9AD
BE8F443D
BE927360
BEBC7BB8
BDC98C71
3ECCA831
BDA385E1
BEE705B1
BEDF514F
3EB8CACB
BD3A9146
3C87B891
BDDA9550
BDAA3FCD
3EC3F99B
3F07B678
BEB28895
3EE56E98
3EF966ED
BEEA80B1
3E8E1E13
3E96AEF6
3EADC51E
3E8438AD
3E61C370
3EF0538F
3EB9A265
BE48479E
BDC16060
3ECEB904
3EF1930C
BE8300B3
BED32E8C
BE9814AC
BDECA47B
BBEE0023
BECA0D1A
3E9EC5BB
3D0B17A6
BEC8C42A
3D8E694F
3EDE9549
3E4E474F
BE7D33F4
3E1FFD39
3E4454BD
BE9AEEA3
3DDA81CF
BD9EE36B
3EE21BD2
3C433FF1
BE624BDC
3EFD8172
3DC2ADAA
BEA00F31
3E2A72B5
BDCEC8E3
3EB7512D
3EBC2324
3E73C679
3E73B9FF
3EAF310D
3EF9243A
3EA82A27
BEE8BD70
BE03D0C0
BE45B934
BEC94E61
BEBEC58C
3E91B7E4
BE8C4677
3E97C9D7
3EBB2003
3ED194D1
3EA9CD0C
BE5661C9
3A508264
3EBBADBA
3E447516
3EC7EB94
3ED1E379
BE662959
BEA24089
3EAD6CAB
3E812C9D
BE674A6A
BCF82BC0
BEC67469
BEC3AAA2
BE29BD69
3EB36E25
3EB60158
BEA5ADA7
3EAC91A6
3E3BEC5A
BE9049BE
BE990C3A
BF0241CE
BE16D8B9
BDED66AE
3EB2B504
3E04B5FE
BE97F541
3E361706
3D8C5A23
BEEEFB78
BF0FFDC6
BEBDD961
BEFE810C
3E6FBA1D
BECC0014
3EEDA31E
BEFC7BC5
BE6305B1
3E9BC3F8
3E796B18
3D3D7393
BE68237F
3EB63B44
3E27C463
3DDC3E3F
3E5352D1
3C9E34D4
3E91608B
3D31C21A
BE9808A0
BEFDC861
3E7EA7E2
BE98753E
BDFEACFF
BEBA9BD0
BEE06976
BEEE3910
BE217B8F
3E9519FD
3E5731AB
BD653D71
3E97AFF4
3ED75F26
3C46B922
3D7998DE
BEEDE566
BC4C78EA
3D92BA3F
BE3FC5B3
BE553191
BE3D37E9
3EB7CB99
3D8555E0
BEA860B1
3CBADCAB
BEA79AF8
3EC148BB
BEEA6EA8
3EE9C6F0
BDA1EDEF
BE825F9C
3EEC9792
BEA7A76F
BD3CBCB4
BE26E9E4
BE44D5BD
3CF4BF90
BDE0F9FB
3E205554
BE2F577E
BEC45FA8
BEC3298E
BEBC1326
BEEBF120
3E0BE851
3E49E23D
BED9CAB0
BEC06F9F
BE6CC0A3
BDE6B625
BDAC219F
3DAC0EF5
BE81E1B1
3EF64DD0
3E82CC9C
3E8A1F41
BEB04509
3E09A537
3EA115CB
BEC475EA
BEE12561
BEE08A5C
BEDC2E12
BE8D1C52
3BDE58E6
BDBA09A4
3D142C3D
BEE9D3EA
3E9A353F
BE9DF479
BE05FBBC
3ED4FB07
BE4357C5
3AD7C8A9
3EE9084F
3EE44846
BE9A3719
BEF0C261
BEDC276D
BD0528AE
BDA9D40F
BC65AF1C
BEE54A94
3E2BD54F
BCBF4667
3EA55007
BD25B6A9
3E1A0203
BD05F35F
BE693393
3E8271AC
3C07B500
BE439827
3EA22F5D
3E6E389A
3EA0B0BD
BE8CF4C7
BE640810
3EBCF47D
BEF45B5F
BD62C2D8
BE9017E8
3EDB431D
3E814E50
3E62F1C5
3EC44B6B
3E4AE0FE
3ED71D13
3ED3B86F
3E8A1276
BDD7382B
BE1E25CF
BE6DCEAC
BCD6DD27
3F0E0036
3E97EEA2
BE560CB8
BBCAC739
BDCF5218
3E60E172
3E3D0105
BECCA6B3
BE85E4DD
3EFE28FB
3EC96917
3EEEF4D6
3EB18472
BEB7F81F
BEA704D7
3E024DE7
BECB83E0
3DC0B377
3EB463FF
BEF0B71F
BE1E0AFE
3D94A54B
3ED2F314
BEE985D6
BB2965BF
3EAC6EBE
3EA56EA6
3ED62132
BE941762
BECBC17B
BE0208D4
BE880F74
3EA39B99
3CFAB0D6
3D9FF06E
BEA4CB9B
BE8ECA2F
BE64255E
BE3A15BA
3D5072A9
BE39699A
BEB19BD1
BE2BD64E
3EF591CA
BEAA4D0D
BC8EE0D9
3E062CE9
BE695C21
BED93D10
BCC0A5AD
BE52DC61
BDBA78D8
BEE295E0
BE85262A
3CA8A2B6
3DAAC62D
BEE9188C
BE7FE366
BC5D9BBD
BE6C831C
BDCA138D
3E9584C6
BD5DC578
BE878E63
BE180C60
3EF066B2
BE1D74CF
3E137381
BE8A16A1
3D11AEB4
BEFB7696
BE08B3A6
3D4B21D2
BE20C141
BDE4FDCB
3E6724ED
3EA5C44A
BEFCBFEA
3EF3C71D
3EBE2889
BC0CEB35
BE2B8866
BE43CFF0
3C01C715
BDE23D92
3DF10A3C
BED9B930
BBD211B0
BEF6F636
3D90738E
3E97D9D5
BD8BF501
BE787175
BEEFABA4
BD17D15D
3D6A3F8A
BEF3F900
3EA833AF
BEA96D78
BEB144FB
BE61744C
BE9237D1
3DB9FB03
3EB675F9
3D6E1E3B
3EEDD200
3D596978
BE2822F8
3EDE8043
3D19CD31
BE768DCD
BD8AD157
3E88C04F
3D515BF8
BEE5264F
BE0A6C78
BE2F2C6C
BEDE598E
3EACE6D8
BD427D89
3E2A4393
3D21A2B2
3E345D7E
BF1F10DF
3E857BBB
BDD77E1C
3D91A85C
3E838E77
BE830DD8
3EB2362E
BEEB010D
3D932FCB
BEDED008
3DDED9C5
BDEED16F
3D98A6C0
3D1E1A82
BF0B1345
BF01910C
3DD7D0AF
3E0E5831
BE2E4E63
BEE2CCED
BE44105F
3E536BFB
BEE469FC
3EACAB06
BE204824
BE20CBA9
3E53EC89
3D844CB1
BF142E48
BDF6D10A
BC742211
BF100F8F
BE85A452
BEDFB86F
3E61FF5D
BEA655C8
BE0D3013
3D8BBBB3
BEA5E9B9
3EC265FE
3DCA8742
3E8CB462
BE25E59C
BE611185
3CAEE7AA
BD638144
BE6E2BAE
BF0A34B3
3EA97AF5
BD5BA5E3
BEDB010D
BDB52A69
396C08D2
BDCE1A4D
BE5D1ECC
3E25CC49
3D54F880
BF1247D6
BE44774A
3C848F11
BC3BFC30
BEBCF1C7
3EA7AF9D
3EF855DE
BE6A871A
3D1A2113
BEC8F1CA
3D88E0E5
BED05EE5
BE42066A
3D4B0582
3EA5B7D7
BE5166D3
3EED3E5C
BEF9D876
3D9B55B9
BE9CA5C1
BEBB8AA3
BBA36AD4
BEC58527
3EBFD6AC
3EEF26E4
3E4EA084
BE524D5A
BEB721DC
BF23BADE
BF109C5D
3E794595
BF0545E7
3E030CBE
3E5A43AE
3E9A3A74
3EB66938
3CB2FAFF
3E6C0DDB
BEE29F17
BED060E7
3ED12B22
3E7DF521
BE4CAA9E
BD98E143
BD8FB15B
BEF075E6
BC900B46
BED85CFC
BF4B0FB6
BF3116D9
BE2A8D0E
BE5E0045
3EFE9E76
3EF7041E
BE0EF09A
3EE22205
3D9C6BC1
3DF5AC2C
BECF26A1
3CAECA4E
3E955271
BEB458A2
3E89E0F5
38D9E4E3
3EAF4A63
3C56BD11
BE575D72
BDBB7084
BDD532B2
3AC8BC9D
3D93D9C4
BDABC3C6
BE03DAD1
3E961BBA
3D31480C
BE2C878B
BE2996E6
BF2F0A93
3E749511
3EA0B62D
3CCC7B6E
3DF64884
BE0BF4F3
3D4683C3
BCD00EA1
3E06D85B
BE2568F6
3ECFE2C9
BE9CD445
BCCFE2CC
3D2F1E4B
BEEFDBA4
3DD6C150
BE62F30E
BC7554AB
BC6E1298
3EE16745
3ECE7748
3EE1E182
BE11C3B3
3D13028C
BD7980A5
BD98E7F9
BDD4EC7E
BF1CBFF8
BEE6FFF0
BE92A63B
3EDFF233
BD3C1509
BE6BDE39
3ED5409D
3EA33F96
3E3CEF17
BEB04F67
BE96F76B
3EE3DEB9
3D5A6CAE
BDA24D24
3EBC80E5
3E888C78
3EC5C30F
BDCA6564
3E947483
3D413A27
3E8B76AA
BE1FD04A
BEF25F2A
3E5EBCAC
BE155C53
3EF2D11E
3E928523
BC56A37B
BE95D2DE
BE1DE970
BE0D76D4
3E1102BC
3E2ABE92
3E154D4E
BA48DAD0
3EAC657D
3E417B7B
BE4F4EB6
3E46F77F
BE2580B6
BE61F4B9
3E8E5BF7
BE61EA5E
3EB00C95
BE9B9D6C
BEB241F3
3DD9DFF6
BEB05CC2
3DE13173
BD154EB1
3E0E7B08
BDE7F646
3EBFA2D2
3E3F1441
3EE0FB55
BEFBBE88
3D9D0346
3E62B42A
3E8FC823
3F120F6A
BE866589
3EE5A6C2
BE86BF87
3CDC5C8D
BCE3740E
3E9C85BF
3D98F309
BE49FC8F
BECBA69F
BE8BC2D8
3E0D0C87
BDD19DAA
BEFF964E
3ED549E5
BE95074F
BE826DC8
BEAA4FF9
3EE16D5D
BD9BC5C4
3E9E4621
BDA51FFA
3F12C5C3
3F0A5B55
BEBF65C1
3E063758
3EAA0FF9
BEA4C4B3
BE824BFD
3DDA2157
3E2B6BFB
3EA3D669
3CE9AC01
3DAC1AC0
BE8622D5
BE546555
BE561694
BEA6FD18
3ECE1F9C
3DC05CB2
BE4E65D3
BEBE4F4B
BE94DD86
3E047106
BECB83A7
BE977897
3F05FFEC
3C792302
BD7A766E
3F09A389
3EBC3357
3F10F975
BE9DE12E
3D8B6A7C
3E38506D
BEA0A9A6
BE88A90F
3D80BACE
BECF9D87
BEC61BBA
BF000FC5
3E884F38
BEF43FC8
3E281FF5
3DFEA712
BD6C0542
BEF1DF4A
3ED4105F
3E09A20B
3ED81564
BD2B37F2
3EAC43EC
BF05D5EF
3E51F63E
3E51E174
BE13AE40
3F1742F4
3E96B006
3EA01FEE
BD607E25
BC6A395A
BEB853CF
3EE0DFDF
BCBD91C6
3E5B8815
3E2FE070
3B790463
3EAF819B
BE9FBEF6
3DBEA10B
BF080BED
BE68214B
3E170B3C
BEBC507E
3EF2A9DD
BE80158C
3DA9F864
BF020B03
BEC7802E
BEC4589E
3EA68CFD
3DE0D6DA
BE9ACA72
BED2E997
3D557F3E
3EE39116
BD3440AF
BD08DB3B
BE06740F
3E6A229F
BDF3C7E3
3E19EB1A
3EC8B146
BDF6B7FB
BEAC9FB3
3E81871E
BEF107AA
3E06A4D1
3D449F87
BE81D302
BD74350B
3DBF98ED
3BCEC41E
BEE0F989
3E6D1F67
BCAF0648
BE704098
BE8ABA96
BDC8F8CD
BDC79F4C
BB3380CB
BDE98817
BE86E268
3E958E07
BCAFA1E4
3DDC68C4
BD165F88
3E32EC22
3ED1DC00
3E82D052
BDEB5485
BE173DEF
3DF1B7FC
BCA5D4A6
3E260A5C
3E2EEF94
BEB2D521
3E125CA9
BDD4946A
3E5D6E34
3EBB0B1E
3EA805BE
BE419723
BE02C87B
3EB6CBA0
BF066EEB
3E996664
BEBBCD00
BE5BA16E
BE4134E9
3E9F8A09
3F0A3449
3EB4B704
3EDB5DE1
3E5ABB7B
BE407237
BDC9D452
BF0B119A
3EC8D54B
BDED8E28
3EDFD08A
BE0FF716
3D2A4E38
BDB3A620
3E848E7D
BEBEA6FB
BEDC7A6C
3EBB578C
3E76E900
BD119E8E
3DA4505C
3DDB253A
BE6303AC
3EAFF006
3EDF43D2
BEBA873F
3EC22347
3E97BB62
BC921038
BCA8AB1A
BE128941
BE973DD1
BE7244E9
3EDCA604
3EC25545
3E4FF504
BEA6E21E
BE26A89E
3E9DC6AD
BED663F3
3D8C3AAE
3E28EC02
BDD4FDE6
BEF85580
BEFADEFC
BECE41E9
BEC558D0
BED960D9
3EEC9204
3EB54B74
3CD03CFA
BBA8884A
BDE178E9
3E802E16
BE41BBE3
BE24A5E6
BEFF1492
BE07D93B
BE3043C4
BDB27B8B
3DCBAF2B
BDBF8693
BE115C7F
3E8240AA
BDC2978A
BE073E32
3DFDAA50
3E0DE772
3E02F584
BDFBD96D
3E2BB101
BED5D5CD
3EF5FA7A
BEF6F3D7
BED72CCA
3EF69C6E
BEC54E43
BE9CC734
BEE88578
BEE74CFB
BF03DD70
BC80DE17
BD3B29A2
BE1A52B3
BE3A52AC
BF040BB6
3EDAE481
BD98B497
BE11F80D
BEAA0EE2
3E7483BE
BEEA0203
3E21531C
BE69E201
3ED7787F
BEC79EE4
3DE4623D
BCA6AF62
3E5FFF58
BE9C339A
3EA80C84
BE16B0A4
BE6D661A
3E98FE6D
BE052334
BE1BC1E3
3E8F13C5
BCA57901
3CC360A8
3E9AB10C
3B24F79C
3B6DC56B
BE25CF5A
BED634EC
BF0B7B14
3E5E7719
BEAD0BBE
BEF07A04
BE75B347
3DBE83F2
BE8EF786
BEDAA9AE
3E3EC970
3EEED316
BDA1A650
3DEE5BA0
BECE7A2A
BEEBC7DD
BECC57D1
3E999E81
BE884835
3ED91585
BEB23334
3B025D3D
3E642A82
3CBB3560
3EB48CAE
3BBB54D5
BEFC0339
BDCB79D9
BE09FBDA
3D928B10
3EE7C7C2
3E823ECA
3E61425C
BEEC13DF
3DB04634
3EDAB7AE
BEC6C615
3ECF7E36
3DE3F58E
BD7C2E6A
BED0A926
BE169C3F
BDA4E55D
3CC2B8E2
3EF77546
3C700D44
3D88C7AD
BED52E55
BE3E3F00
3E99E9B6
BEFC18D0
BD0AA89B
BE4A324D
3E6BAF82
3EF95AF3
BEB27D3C
BE88997C
3EFA34A2
3D2AC0D4
3D96422C
3D605FA1
3C99B97A
BE1D7BAD
BE4BA52E
3DD5A26C
3EF5F58C
BE5CA1F1
3E87E1B2
3EDFF94A
3ED854DE
BE9991C3
BEF18365
BE5FEFEE
3DF7E23F
3D5601E5
BE71050B
BEBA8706
BEC30DDC
BE1B61AE
BD4D3431
3ED6DBDB
BE13934D
3ED506C9
BE8E35B5
BED3CE85
3ECEEF44
BE0044C3
BE3844AF
3ECC17C0
3ED68C23
3ECA0906
BD1E4F26
BD54771B
BE82C3B9
3E8B4699
BEDE7E26
BE882D85
BEDF690B
3EA8A7C6
BEA8D0DA
3EF9C65C
BEF07655
BE9A543F
BE6C6335
3E1B0476
3E806BFD
3D0A5EFF
3E92FB31
3EBD5DF6
3EC3BE63
BE86467F
3E964F1C
BE845C97
BEB06600
BEF8440D
BE2D9F8A
BEE057E2
BDE7A8C9
3E156C57
3EE783D3
BE4077FC
3D47F314
BD9D76AB
3E834ECA
3E93105C
BE9F098C
3EA38207
BEF7087C
BE7CDD07
3E18596B
BE9FD955
BE84A827
3E376CC1
BDE8B6A3
3C248F97
BE2D7E9D
BEB9C004
BEE93BE6
BEC2A851
BEF9EEFB
3ED947A4
BE129FCC
3E99DD6E
BEA3B7D8
3CCA69B1
3E99BF96
BCB0F678
3D6E6695
BE94FF1E
BEAE418B
3D587D8A
3CB4E83F
3E41E75A
3EE7C6F8
BE708AA6
BD2D7C55
BEBECF31
BEDA294F
BCE3B074
BDF44DD8
3E6406CD
3E23DE9E
3DF8A413
BDC78657
BEE72895
BEBA706A
3E728933
BE9D1A2C
BEAC2BCE
3EA5797D
BE998EEE
BEB7147D
BE8B97A7
3EF97DE1
BE809F30
3E2AF77C
3E97A5E7
3E87FAE0
BE474928
3F0BDD98
3EDAFC01
3EA97372
3BAD8AE8
3D59ACAF
3E761CF2
3E7C4ACE
BEFA209E
3EBA29AD
3EA37E94
BC84D47B
BE82722F
3D37963A
BEAE85C1
3EBBA77D
3EE41084
BEA30305
3EEA56F9
3DF8354B
BE180C37
BEA65D6C
3CE3C9D4
3D8925BB
BE5BE1A8
3E1DEF63
BD42C394
3C98FCBC
BD6681C5
BE283C81
BE41FF93
3E71CD88
BE09BB6B
BE8FF5D1
3CF554AB
3EA7E9ED
3E70DBC8
BE7CD899
3D968662
3E7CAFA0
BEBFFE42
BDC5ACB2
BE7D9D85
BE0888F8
3ED036C0
BE219EA9
BEA54F60
3E909ED2
BD19E768
BEBBD06C
3BA06EA0
3EC893A4
BE44FA2D
BF17AC3B
BE404224
3D29CBAB
3E7A20F2
BF00B6CB
BEBA5E4D
BE91BE90
BDC369D5
3D26B881
3EFE1B99
3E774214
3E3BF9A5
BC1DAFA9
3D8662AD
BD9F8D21
3E84C374
BEA94615
BE94CA45
3EC41326
3D28C917
BD6EA1EF
BE869EFC
BD8C99F2
3E9F4E4E
3CAE5DE1
BDCE0610
BE7E5754
3D05460B
3E89FCB1
BE98ADA8
BF0CAC81
3E9C9239
3E1C0237
3E1AB170
3E68E1AE
3E9F1A27
3EF82AD9
BED644A6
BE8028E5
BD21DF84
BEF61AAB
3EEE4E13
BEB9F8A4
3C3F4B6F
3D5AF65B
3DEA539E
BE5C7C09
3E5F4FDE
3E9D48F0
BE9C9D28
BE9196EA
BEB88296
BDEB6856
3DE00241
3EBA7BA6
3EBD7895
BEC4B81E
BE2084CD
BD172E35
3E8EA953
BDF1C9F7
BD477250
3EA2B83E
BE71DE5C
BE21EAC3
3E83CC23
BEBDD5BC
BE8D69C6
3E6F3ADE
BE3139C3
3E355121
3E82A377
BE3A2A5B
3EB49067
BE646393
3EA48C0A
BD9AC124
3D0BBA2E
BDDAD081
BEEEC3B6
3DDCB832
3E13A5DD
BEA27833
3F019EFD
BCE75402
BEB62F67
3E5320A4
BE233C3E
BE3C7285
BEB3BC6B
BE80E347
3EA3E2AE
3E9E946B
BE6EC178
BEB5E215
3EFDA5E5
3EC01890
BE8F340A
BE8EA777
3DF1F9F0
3D8D6BB6
3ED298A0
BE0F224E
3EA0FAB4
3E5B6D44
3D6F2B82
3CA98641
BEDDFA44
BEAD559D
BEBABBC1
BE8DFE0E
3EAAA63F
3ED64B3B
BD1776C5
3DE80057
BEB81ECA
3C8A544D
BDA03651
3CBE905F
3EBBF5F6
3E77A065
3EEC0A7C
3E91DA59
BDC0ED58
BED9F06C
3EC69C9D
BDC9C4B2
3EED1090
BEBA972C
3E0870C6
3D6F530A
3E012282
BCA5C58C
3EB06CBD
BD1DDD61
BE3E5F31
3E17B88A
BE606F84
BD4388D1
3E9C5551
BD89DE05
3E15F49A
BD88A746
BEC1EAFF
3EF24EB4
BE9D4EC5
BE12B37C
3BA00C7A
3E6194B3
3F107F27
3B542A8F
BE20349D
3EB99967
BE8402EC
3E80B7D1
3EE6A81B
BEAB5943
BEA670AA
3ECD81FB
BE8E9C6E
3E6AD828
B9B46852
3F0450CE
BD1FC364
3D75FE54
3DBAC2D2
3E39D580
3F0BD067
3E4F87DC
3F0AB2D6
3E4E79BF
3E9BA033
BE41EDDA
BF06A95D
BF187FCF
BE59644E
BE8E50A4
BD63C13B
3EE02364
3EC9C1D0
BDF7B869
BDDC987A
BE84BBF5
BE80E260
3E2552DC
3F0BE1F9
BE8C15A0
3E8F41D4
BEA477AB
BE912602
3F2DAB22
3F089A26
3DF4B59A
3F01BC4D
BE7767FC
3F069C82
BB60F8D4
3ECE8287
3EDBD783
3E9726BC
BDBCFB9E
BE9AA3AD
BCCDF480
3E814984
BE2B7048
3E25CC1A
BE879C2D
3E179EFB
BED04C88
BEB156E9
3D4137A3
BCF43196
3D6D0F98
3EB4170E
3E6A860E
BEB571DC
3E98D2E8
3EEC2B3E
3EEE52E9
3EBBDBC2
3EC181B5
3ECDC5A1
3E9FC75A
3E07B6BB
3F0C18A6
3F344F93
3CCACB6B
BEBBB5AB
3DAA3642
BEFEC150
3E9ECEB5
BEE5D401
BD9823FE
3CE0F1B2
BF03B963
3ED03A2F
BE72D53F
BE844213
3D81D085
BE149477
BDE8CF54
BEBBFC01
3E841CB4
3EA2C874
3E9EAD4C
BCBE9F42
BEEFC628
3C17DAE8
BE16688D
BF0B858C
3D8E4309
3CD5C34B
3F279A50
3D6D1684
3EF97980
3EA492D7
BE8986EC
BEA37AA6
3ED7A7AF
3EE03CBD
BE5F2FE2
3E811000
BEE8BCFE
3E9A9B3C
BE00EBD3
BED7C6D0
3E5EEBFD
3E00629E
BE5725CB
BE93AEE8
3EB401A7
3D15975C
BE9D8CFA
3E262677
3CD0BF6B
BE7E1F84
BE353239
3E3C729F
3ED0AE39
3EBADFC6
3EC6B6D0
3D71C377
BE8EB78F
3E6E0AB4
3E7E6B61
BED1068D
3E30B9CF
BEAC93A4
BE909492
BD862F09
BEF246BC
3D1871B1
BE4984BC
BEBCE2C8
BE199008
3E27A04B
BEA873E5
BF0C618F
BEAD3B2D
BE1F52AC
BEBF0B68
BEB129BE
BEA6582A
3E3AF768
BEDA10E3
3ECA6B07
3F0659A1
3DC0DC9F
3E300CA9
3EAFAEF9
BE885074
BE156664
BE561EA0
BD81DC6C
BE7E58D2
BEA3C9F6
BC0BF5D8
3E837EE8
BE92868D
3E72D05F
BE0E98EA
BE341E29
BE523564
3E2A2094
BDACA199
399487E2
BE94C1E2
3CE20289
BB6A59A6
BD0FF576
BED0F16C
BF1830E7
3EC88224
BCC122AA
3EAACD33
BE97D673
BE17CAA7
3E5F29FC
3D499C2B
3EB64396
39755DE6
3E9CAD04
BE18EC09
3EDDE35B
BE410852
3D1A46B8
BEE80944
3EB4C22C
3A405C7C
BE1AAA92
3DF17BB0
3ECC6229
3E01A89F
3E692F11
BDF28ACC
BF0F3ED7
BE58D159
3DCF4631
3D5CF3F7
BED3F056
BBE3EF28
3F07838A
BE16BEFA
3D93AC6A
BD100E1A
BED42518
3DD2E82D
3DE51E32
3E028E1A
BEBE55D8
3DE70F39
BE4BFEBB
BF0C9335
3ED33927
BE85C695
BE0AB580
3E089495
BE26567D
BE83144B
BE9F84D5
3E28118A
3E69278B
3E9C8634
BEC4E17F
39FB3D23
BE74007C
BE20BD7A
BE8EB98D
BD3233A9
BE0DCDE2
3D4573A8
3EC7D49D
BE6CA904
3EA48741
BDFB27A4
3C9FA83C
3E2BE4E2
3EF1ECF0
BE4A8A03
BD5EFC45
BEEDBEF8
3EA358E5
3E95D66E
BEB13C4A
3EC0B5FB
BEDE0034
3D136919
3D42E87D
BDF843D1
3E280ED0
BD986D14
BF2CE77C
BE12A122
BD3C87C0
BDD18549
BDB3CCA9
BE4AA9B5
3F0858F5
3DFD17EE
3D4D0B9C
BE77D341
BEBCD775
BD9B1847
BE6E4382
3E84316D
3EA9BB3C
BEEF5A38
3CA45656
3E6BE63F
BE57EE1F
BECDDE85
3EE862EC
BE94CCAF
3ED6530E
BEC6A5A8
BECA651A
3EF470B2
3D4E05CD
BE1C40EC
BEC5179E
BEA8F487
BEE36D1C
BE37F716
3ED612F6
3EC8B491
3EF5B8D6
BDD72C01
BEBC6E88
3ED80FA0
3ECBA934
BCF1C21A
BF186736
3EE7AF38
BEF659C0
BD9A0AF3
3E6F5B3E
3EA56C8A
3B6685DB
BD6362F6
3E6475B7
3EB495E5
3D607B1A
3E3467E0
BEE09F87
BD23BF3D
3E59D49C
BF0BE4D4
BEAABAFB
BEB71108
BCC537AD
3D55E8BA
3E0EADFE
3EC532E4
BDD8F8CD
3EE33952
3EEA179D
BE429202
BEB125A1
3E9782BF
BEF06C29
BEF90445
BDC4B14D
BEDA12D1
BF05053D
BC18FB0E
3E08006B
3EC9D104
BD88BB90
BEAA22C1
BE216518
BEADF189
BEEAB23D
3ED9B4EA
3EB26172
BEE3C7E3
BE2A0CFF
3D5886FA
BEBABA53
3E83B246
BF08B6A4
3EE3BB69
3E85728E
3EF88825
3F05CA84
3F0C0858
3E8F90A4
3EA8152E
BE8BD6BA
3EB13A60
3E1BA084
BE6D40B8
3EC869C0
BEA675B2
BC0F5DD6
BEFF7787
3E77F9A1
BEBA7675
3ECA8B8C
BEA47398
BE3926D5
BE6F5877
BDF46116
BD8DBA4D
BE4F89B2
BE3CB018
3C70F4CA
3DB11757
3E9E5E39
3E21910E
BD8D2D37
3EF3324F
3E8BB682
BEA46AFE
3EB2C581
3DF4EC56
BEF26E4E
BD8C6053
BE18DFDF
BE8B3743
BE3A56F2
BED0A142
3DAAB4D2
BE6AF26D
BE405EB0
BED4FA0F
BE681F4D
BEE41A26
BE8E65A7
BEA49D53
BE834DB1
3D80256F
BC7C8019
3E198F3F
3ED5FAA9
3DC3BDC5
3E931C86
BE1B5FB6
BEA9ED47
3E0504DF
3EFD8CC8
BC91AE7E
BD5D78EC
3D873315
BD9B66D1
BED96DA0
BEE08FE1
BDBD43F8
3D22FAA1
BD3C46D8
3E0DC66A
3EBB01DD
3D6B1232
BE8BA7A5
BEB9205F
3EBD32EE
BE414B5A
BDB75C15
3ED53A9D
3CB7952D
3DA9998C
BEB0131C
BEE3BDDC
3EF978C1
3E60C2E7
3ED06B8F
3D314C23
BD4F6B28
BEA9A50E
3DC26E7D
3EF40329
BEDD2E36
3EEE2FCF
BE50AA72
3D120ADF
BE19593E
BDD49B7E
3DEA659A
3E79EDE8
3EDE7507
BEDD41C5
BDEE53C3
3E9A273D
3E004103
3DE30D9C
3EE10A32
BBA9CCEE
3ED7F272
BE1A9AF9
BDAAD2DD
BD406622
3EDD46F2
3D93B9BB
3BF5E199
3ED6F64E
BE59FA04
BDB77DBE
BD4901EC
3E6CA14F
3D81F736
BEF271F3
3E38AD25
3DDE7112
3EF8C67B
3EFDB24B
BEAF3605
BE27CC7D
BDDD6FCD
3E8B9153
BED6F237
BE31CDD8
3EAE4F8E
BD14393D
BEBEBFB0
BD0C7F6A
BED9C3C1
BEDDB8D2
3EEBC386
3EFE5DEF
BDA787DC
BDF7A271
BD4CCF51
BE19CD74
3EE6ED0A
3EEA5FC8
BE6BF75D
BE85F725
BE07EEDB
3E5FE613
3EEF1580
3EDD4AEB
3E7B1DCF
3E1AAB0B
3D309B3E
3E6D0218
3E159DA6
3E4DBAC6
BEDD652F
BEEC8D20
BCD914A4
BEB45766
BE0AEA2B
BE3E8DB9
3DDC6DE7
BC90173A
3E89C6D9
3E392232
3D5A4922
3E6F97EE
3E34EF17
3EF2A96E
BEC4354B
BEBDEBFB
BE34AC88
BEDD0B02
BED20363
3DBCDA7C
BE47142D
BD3164FD
BE3E1D72
BE65C784
BDE08A84
BEE10782
3EDA845A
3EDDF0C7
3E95798E
3D954CA6
3E09969D
3EB80534
3DE2A56F
BEC8D4F1
BEFEFC19
3EE977E7
BDDD5C74
3DAB7CAE
BD97D475
BEA67964
BE5EF113
BEFD2F57
3ED1B520
3EE786D6
BF064866
BEE9EA86
BECAC2F7
BE39E6B2
BEC0EBAB
BE989F1F
3ED6B9B9
BD81D1FD
3E2D1216
BE844FAA
3E5CFA77
BEE0E58C
BE4AA3F0
3E120324
3EFD0B13
BED00CA9
BE91DAB4
3E0B970D
3EE4FD71
3E9913F9
3E402C54
3ED1A239
3E80D761
BEB6E0B7
3DE76FD9
BE5B9AB2
BE201CF8
3EB1EEF1
BE5F0EA5
BE4EE137
3EAFE4A9
BE681791
BE26C630
3EE93239
3DC2245A
BCBE4F91
BE98A06B
3D57E961
3EDDF224
3EC11394
3E96F6A8
3E18FC43
3EE05575
BECD3204
BE4A963A
3EF18BF1
BE896B8B
3CCFC5A6
3DB2EFE2
BEAD6DD9
BE14F5A4
BE2EBCAC
BEAEE6F1
BEA6DC49
BDEAB997
3DCE3D88
BE27ACB1
3E7B2ECC
3D2FEB4A
3E28243A
BEDFD67D
BE15AC8A
3EC9D85B
