3FA7A3C0
BE424D24
3EE81E0B
3EF09774
BFAFE82D
3F559633
BCD3F8DB
BE18CD56
BD2263F3
3F2CC301
3F691AB4
3F077B2E
BE9198A5
3F2AB4B2
BF1AAD11
BECC3A7C
BF4D105B
BE1D42DF
BF148F36
BF82B528
BEAD4F95
BDA73E25
BE4D0423
BEBE4ABE
BD8BE597
BE9B4664
BF6684F9
BD9AA392
BD8B436D
BF45517F
BE9F574F
BF023D1D
BF1F2741
3E83E9B4
BD73C5B0
3F104B4F
3D14038D
3CA768C5
BE9E5764
3EFD2CF8
BE8D8271
3F48E2BF
BEC08401
3F683244
BE7AE6EB
BF4BA492
BE59E351
BF90E546
3E2BC383
3F3DDB03
3DA465DB
3F8AA917
3ED845E3
BE0E462F
3EC73867
BE7417CA
3E8F10B7
3ED7B62B
BEA5FFC5
BF41D1BA
3E135DA4
3DF2026E
3F05C463
3C6825EF
3E9F8F69
BED5B8DC
3EFB780D
BEED79CA
3ED77945
BEFC2F5B
3E611D3D
3D73AB79
3ECE89C0
3E97712C
3D49A81F
3DCDD6FB
3EFCDFB3
3EC2C39B
3E18162D
3DC05A13
3DDF79D6
3E979874
3D9A2E2F
3ECCE5CF
BEB84E43
3E28B022
BDB4F98C
3ECB88EC
BED1BDC3
BD368B0C
BE8EF3EB
3E1C6279
3F010ED0
3ECAA10E
3ED6EC4E
3E9091C4
3EFE5D58
3EB781AC
3E9844A4
3EC8D093
3ECF6220
3CA2B8C7
BCC6DA7A
3E914226
BE3F8804
3EF70370
BE0A624C
BE833DD4
3EB7578C
3F090F0D
3ECF57B1
BDAB59B5
3E846874
BD278565
BE3CF752
3EB9EDDE
BECBDCCB
3E4EE371
3E8C9F5F
BEC481EB
BECAD0CE
3EEEFF56
3E93B9C6
BED379F4
3EB10D21
3E3B3DDF
3EA631B9
3EAD8E43
BCC3ABF2
3ED0AFB7
3E542C51
BEB0CE55
BF27354E
3E1D23F0
BCFEF06B
3ED792EC
BF7E8B47
BF121954
3D8B76C1
3F62C7DA
3DA3C0B5
3E3A1EE6
BE982401
BE1B407E
3D2B2222
3EAB7DD5
BF508674
BF89BC7D
BD1BCCE5
3EA28A68
BF6D6124
BEF3AE2C
3F9950E9
3DD709DF
BF1CD237
BE30E6EC
BEF24986
3C4C7EC9
BEC67FBC
BF5C863B
3F0B86AB
BF3ACA33
BF47B33F
3F6CCA25
BD8EBFF9
BEC6AA0C
3E5430C6
BF0633B2
BF713D33
BE99A177
3C46FBD2
3CE1A6E4
BEC159D9
3EC1F0B9
3F307318
BD6055AB
3E70A1A3
3F011B64
3ECB17A6
3F3A34E5
3EA116A9
BCB35F08
3DB72D28
BDE38914
3E637E04
BE947BB1
3E6B5B48
BF33EA3B
BF1E1FA1
BD39FFBB
BEA11BAE
3E6D1D98
BCA8CFCD
BF2E2A24
3E8227D7
3E4B502B
BFAF883F
3F465FFA
3E1709E6
BF7A1C5A
BF4DC708
BFB2EDFE
3F06462A
3E11909C
3E17BE9F
BF179D31
BF6C70FA
3E2FF9F8
BE959B30
BE612C1A
BED901A3
BEA8529A
BE7D6650
BEFB6175
3F4BDF07
3F604481
3F8EBDE2
BE973AC3
3F12FF80
BECF555F
BE639DCA
BF01F7C5
BF167AF5
BF231CDF
BF2E401D
3F50E881
BDB4325F
BEC95E8A
3EDC17E2
BEDCD724
BEBC4517
3EF17B82
3BEBA4FF
3EC1B7C2
BD4D8B1E
B9811468
3E28B6CB
3E1EC623
3F283EA2
BF970245
BFAF6EC4
3C4D799B
3E83B6E7
BF6BE927
3E9F58A9
BE0E30A9
3F833A83
3F180665
3C70F02D
3E6712D7
3F0B7284
3E10D802
BEBD9FB9
3EC8C6AA
BE3B6AA5
3EF31CC6
3DD6886D
3F0FF628
BF0EBC71
BDD4F3C8
3F65CC5D
BEE390BC
3E6D3408
3EB0C034
3F44AB47
3F6D3D9A
BF2A1AD5
3E47E572
BE4B20FB
3F664FC4
3EAFB880
3ECDEA68
BDEACEEE
BEC59392
3F0341B6
BE1919A6
3D6ABC87
3EA0CF87
BF6F22CE
BF2A99B0
BF17A30D
BCB817D4
BEB99E0B
3F45B5A8
3E566355
3E49307B
3D0E03EA
3D1E77BA
BDABE206
3E338914
3E7A8629
3E8C383E
BE8C52D3
3E2DBB2B
BE445565
BEF05897
3EB184D7
3E815462
3DB6CB46
BED2AEEF
BEC3BF40
BD0E40D6
BEAFDD9B
3F6E5167
3DD11333
BE52F6B9
BF3E2FD4
3B6BA428
3E770CF7
BED0405F
3E9C0D2C
BF0904BA
3ED6D7D1
BE51F278
BEBB782F
BF2F8BFD
3F8B7651
3E201E5B
BEE52454
BC6AB5EC
BEC9B93E
BE5C9B69
BF5866DF
3EA937B4
3F56937B
3E20E2BA
3D398908
3E966080
BD5586CB
BF2AC6FE
3D1716EE
BF02AADC
3EB58948
BF578302
3EB094C1
3F49C503
BED1A021
3E375D1B
3EA04202
3F3C2AEF
BE989B8E
3F10A7D5
BDBA0EC7
3EDFB176
3F08697B
BE47015A
3F169E23
3F0108EC
3F20E876
3F17B853
BF12E38C
BEBE4A60
3EFBECDD
BE9AD699
BD073599
BE30AC3B
3EA20C1B
3CFDBD30
3ED4002C
3EAAA342
3EFDA4FA
3CDF5F77
BD82919D
BF598F42
3E59E07C
3DE5C8F5
BE72D384
3F8936DB
BF554122
BE9E05E4
BE0A22F7
BF533A8F
BEE3E8A5
3D12C5F0
3F038219
BE46AC00
BF459BA5
BD5CDC44
3F415E7B
3F131081
BE067382
BF5C08EF
BF3C3C68
3DC86595
BF6DBF6F
3FA1F370
3F7A5DA0
BF1F4AA8
BF11079E
3F5C7C34
3D8893AA
BE70AF88
3ED1F725
BE6DA130
BF0FB844
BF057B3B
BF5DB320
3EF55EA1
3F2C2F0E
BEA409A9
3F03313F
3EDBF33C
3F5609A6
3F41EAC6
3EF6F700
3F05E550
BDBCDBE6
BF82505F
BE9F6F59
BF7A0232
BE6540E7
BEDB367D
BF2BF367
3ED544A0
3F9FD895
3DB6B1BD
3E3F6860
3C0E7DDD
BD898C99
3E416690
BE19414F
BEFEBD89
3DFD4A86
3DC52C9D
BEE06E56
3CCD8F6A
BF032709
3E4B9A25
BF36FF7B
39C58D3D
3DB401E0
BE4AA433
3F2C51E8
BF918EB6
3D1074F8
3F7C4C07
3F55970B
3E973AFC
BB9270B0
BF0B28E2
3E2D6444
BE98DBFE
BE698373
3F0E02BD
BED36F85
3EBF62D2
3C26B8D1
BF2BFAD8
3EFE2F6A
BD890DD3
BE83396A
BDE86869
BE9BBFFF
BF6F3A16
BE0DB673
3D32C519
3E9EE0F4
3F25438B
3F3229D7
3EB50694
3F4F676A
BDD17F0B
BDF96AF0
3E5BAA3D
BF38EB77
BF3829F0
BC606D94
BF2C0503
BF05B4FE
3F316E48
BE64E6A6
3E968DD4
3DEF73E9
3EDFA538
3CA14C16
3F495544
3E9089C5
BF1518F9
BFBE1994
3E73DCC8
BF77FD25
BE7E73ED
3E2527F3
BEA5A2A5
3EF413E9
3E9665C2
BD91858C
BEF9DBEF
3F00F679
BDCABAF4
BF2B3ABD
3E007FF4
BE727ECB
BF2AEC85
BF6CF3D5
3E9BB469
3E065D9E
3F2E45B4
3E7700E8
3EB188B4
BEA11F09
BEB236FA
3F0F6AE6
BEF04ED0
BD4066C3
3F1A78FB
3F126260
BC77B543
3EFE3A8E
3D50FDB4
3E92B8F6
3EBA747A
BEA244C8
BE9B9F60
3ED1FB7C
BE80E64B
3F18100D
BE3AE141
3E1C0ACA
3DE68AD7
BF2CF29A
BF9B932F
3F2F7639
3E5FC668
3F453B86
BF2CB1C9
BF2F7764
3ECA424A
3B33E8D0
3DE129F4
BEEEBADA
3EF7CB9C
3F1B5FB3
BE97A175
BF8F8C53
BED29A8E
3F87F7B2
BD14A1E3
3F0E1BDE
BEE5A4AD
BF152EF2
BE9903A7
3D86F7E4
BC59F1E4
3F1A1E3F
BDF71088
BFAF10E6
BC8E33D5
3E3A3D48
BEFA2516
3F17C0D1
BE298394
BE95168B
3EF608A8
3F3BECEC
BE84279C
3E795762
3F29A58C
3F4752D6
3E10CAFA
BCD9A1FD
3EBD88A0
BF2C4675
BE69B923
BEBE28EA
3D2D0E20
BEB0EEF2
BF12B997
3DE10BA6
BF17651B
3F38333C
3E829E51
BFC4B953
BE9DE90B
BEFE7BC0
3D451995
3F9E78FF
3E8CA4BB
BF1203B1
3E853FC7
BF1B40AE
BEC6676F
3E918838
3F1BCABA
3F169560
3FB0D7AF
3F0755C0
3F00BA86
BF64C237
3F041D3C
BEA17EA3
BF671B82
BFA52EBB
BF33FDF6
3CE15692
BD32CF2A
BF7D4C50
BEF8E70A
3F27EA52
BE474F94
BEF3791D
3F298EB0
BF9A6156
3E9E35AB
BE251CC8
3F003D40
BF0C6293
BED006CA
3C7983E5
BE707033
3F748EAE
3D4B7D5C
BEEFCCCE
3F2679D0
3E55DD82
BEB7E6F0
BF040DA3
BDA68A5E
BF4C09DD
3F38BB68
BF2DE786
BF617030
BE162190
BF259C54
3F2CBBF5
3DA8D343
3F3A0AFF
3F8017C6
3D7089BB
BD99A324
3E12F790
3F6A1C3C
BD9B1A1D
3F06114D
BF05E8E8
BF262B77
3F6DA0E8
3EBE11FD
3F1970F9
3EF0BE4E
BEB01CAE
BE723B6C
3C5BE13D
BEDBD37A
3F491847
BE2E6631
3F35CF72
BF05593E
BF7F29D2
BF0BF436
3C92F09E
BEC36E21
3E7A6451
BE4E6425
3E66866F
3E2B027E
3F86DA6C
BED06460
BF1DEC37
BE5CA02F
BD615B2F
BE6A1FDF
BEE5CD27
3F1702A2
BE57C37F
3C83BE9C
3D17A934
3EB04369
BF30B63C
3F06D049
3F252D1B
BE2F9618
3F4584A9
BE8725DF
BF03BDA0
3EA7DC0F
BE109AA4
3EA1D6C2
3F10F664
BF49BC4D
BEBC3F1C
3CBB913B
3EE43D25
3F24C250
BD132724
3F36866D
BE8FA8C6
BC49A8C0
3F6C8B92
BF075328
BE76FD07
BF119A28
3ED002F6
3F125CD8
BFBE19DB
3D4C100E
BD8C4B4D
BF1CDC98
BF068BB7
3D67E770
3ED594AF
3F04E51A
BE7AA71C
3F011926
BEBD98EE
3F7F3168
3F4D0716
BEC95E00
3E5FF829
3E48E0E5
3F0BB3D0
3F3C3C87
BE312465
BEE8B1CD
BEE276AB
3E9927AF
BEDBA4B2
3F70F8D2
3E5526E6
BEB7D1BB
3E138AFE
BDBFD4DA
BDAA9B14
BF36AF92
3F040CE6
3E2DDA78
BF1A143E
BDC2CFF4
3EBE7C97
BE91B765
BEFE55FD
3DBC239D
BF17115F
3EE2AD67
3D509A82
3F50A3F7
BEABF452
BF20F4FD
BEDA1B4F
3F801FB6
BDDFCAAE
BF5EFB24
BE163FAE
3ECBF8E5
BEE14CA9
BD2C1872
BE0C3BB4
BED84D1F
BF6C17A7
3F6112D5
3EB26949
3F1A361B
BD91214D
BF643FEB
3EB66A08
3F3652E2
3EF2A2D6
BEFB38D3
3EF8570F
BED066F8
3F4CB1E7
3E8659EF
3D8AFDC0
BED7BFA1
BECA3151
BE59FE87
BF6CB91D
3EA40BCF
BE373033
BE2CEE25
3E9FA6E6
3F027454
3D0B3D81
BE607BC9
3F02133E
3E44B2B1
3E230094
3EBC9675
BF145205
BEE6F6CD
3E6C6CC7
3E23B88D
BD95152E
3E913B9C
3ECCBBBF
3CCB097E
BDF674D1
3D2FC0D3
BC7B3ED0
BEAC7C3E
3EC6F976
3F23003D
BE66893D
3EDA7CFC
3EE474A7
3EA0D389
BEC62CD2
BEAFD91C
3ED252B3
3F124A55
BE9E1467
3ED2183E
3E5DEC1C
3EAA5D2C
BECF69CB
BD4A9890
BD8A71D1
BEFD9334
BE7A3AD2
3EB5B92D
BE54425D
BF22C007
BE940414
3F08A16A
BEB79867
3DA7BD99
BE1DB60E
3CCAA250
3EC8B53C
BEE668E4
BEDFFADD
3E197558
3F0F39F5
3E974A88
3EB3AB8A
3E90E00B
BE44B73A
3E1A82DB
BF05966E
BE93F881
BE592C42
3D06F7F1
3EFEEB59
BF4F28E6
BEE40A18
BEE8F6D6
3EFB4C61
BE82B5DB
3EC5EB53
3EA28C69
BF1E96AB
BEE40A86
BDCF553D
3EE0C979
3E627D2B
BF07B1DB
BE551146
3EF76DE5
3EF59A0F
BE44EC56
BF84CD17
BF556320
BF0B5390
BF03DE9C
BE5D190F
3FB6B6F9
BEE48E7D
3E86810C
3EB792E5
BF17DC5E
3E65D837
BE2AA865
BE54F27F
3F2E9F95
BF1E7FAA
3F7234A0
3DFD72AF
3F155EB7
3F033031
3EF789FF
3E9E64D0
BF34BB23
BF0D4592
3EAD43D4
3F465ABA
3E917761
3EF36552
BF100914
BF06713F
3F20E004
3ED30971
BCAF06B3
BE0C736F
BE05F527
3E7986E2
BE080E50
BEBAA6ED
3F79A549
3EA00775
BE5B543B
3EE44620
BE3BCB67
BD710CE8
3E5ADB04
BEDC6D36
3EB3FEC5
BECB1B3D
3D87F5F6
BF2A1076
3ECD2B9B
3F3925E9
3E32CD0B
3EE95612
3F001FE5
3DF4751D
BE8BBB84
3EB1DC9B
BE37E4CA
3E25E0D0
3F262FA3
BF100675
3F7F30BB
BDBCD043
3ED0F689
3EA460B1
3F841454
3F7623DC
BDAF74F5
BECA51B1
3D9FBE84
BE98BACA
3F022D03
3DC4EA9B
BB323649
3F63C6F5
BF64F66C
BEB00C84
BDCA832C
BE95FCC8
3EF1AF33
3E7664FC
3DC7AAEF
BF1E269F
BF23E354
3D158CDF
3F641552
3E8BE3B7
3E905E30
3EA77B51
BE822998
BEC5A291
3E16A9AB
BEF9EE53
3E80D064
BF770398
3F40005B
BF47A663
BF43F5D2
BF49D4A9
BEAE9D2D
3F5230B1
BEC1CD5C
BDB9005A
BF5FB58B
BE5A7D6E
3E3ECC23
BE63579D
BF01BB95
BF1AEBE9
BE662B5D
3EA39D76
BF3F21DE
BE48BAE2
BF4AA6DB
3F4676FE
BF9C2B27
3F16C64E
BF09619B
BF10B5A5
BF382887
3F1DF5F9
BE4DDC40
3EDB6E83
3F5A2421
3F33AC60
3F578C00
3EE42FC7
BD85C0BA
3D01847F
3DA7664E
3E2005ED
BCF5818C
BF7C1910
BECE4CD7
BF5240D4
3BD206C8
3DC03877
3F2A698A
3EDB4579
BE375445
BE82A49B
3E856650
BFAFB27A
3F3FE39A
3E399A7E
3F0BB484
3F21F2A0
BF56BBC4
BEFC0C4F
BE821C6C
3E8835FA
3EDE6F7C
3F4F262C
3F53576A
BE2E59D1
BE357F0F
BF1B2174
3D3D7D39
3EE5B0E8
BE9D3123
BF9EFAC1
BE6CB868
BDDF1E66
BE954630
BE354097
BF328CE2
3F026009
3F388D09
BF07E401
BEA19B18
3F167299
3D3C7780
BED4594D
3EA061D2
3D13E5AB
BF320FC0
3E01ACF2
BE0E0130
BF58FD4A
3EF9158C
BF84F4CF
BF7AF39B
BDAA5DD7
BF5BE4D1
3F71EE84
BEB0313B
3F037916
BEF8FDCB
3E907D8E
BD23C212
BDF462DE
3F1A2686
3F1FCFC4
BDFDABF0
3F104053
3E345E77
BEACD7A7
BE85D869
3EADD90A
BF1C6F90
3F420D1A
3F2B554C
3EC9C8FC
BE7461DF
BE2FCF1C
BFC8331B
3F5F9901
BF71B9B6
BF43CD9C
BEFF01C6
3F95E61D
3DAB9C08
3DFA7844
BEFACD30
3E82C856
BE92ACD7
BF02B48A
3E0963BB
3F552360
BB71744C
3F47BD58
BF58E58A
BF2783EA
3F9B976B
BED3554E
3F12499C
BEB2CFD9
BE872CBA
BE11A83A
BF808061
BF828797
3F15E36A
BDC3B221
3F4AA3A3
BEE170E7
BED85BB6
3F42413A
BE3ABD64
3E97C717
BE61094A
BCB17F69
3EA6A54A
3E47F716
3D15B559
3EAD556E
3F0FE511
BE039E35
BF06A9A7
BEEAE02E
3DCD78B7
BE195641
BF2CB7BB
BD755D44
BD34959E
BF5CA4B6
3E95A10F
BE05707C
BE90FCAB
3EC0AAE1
BEBA0C75
3F186BBC
BC700333
3F30EB30
3DE9AF84
BF080C94
BF016BE9
BE844623
3CD66F78
BEABFD35
BE95BCE6
3EBA57E1
3F02650D
3E31FC16
BDB85646
3E9325F3
3E8CD9CD
BDAB45AE
3E2A1BC8
BDE7D376
3E3F5283
3D4F137E
BECFF8B3
BE14CD82
BDE32343
3F3711C8
3D70A7D3
BF16E578
B988AE90
3EF7A90C
BF1371CB
3EA4A017
BD4F9A72
3D4D6E63
3EAD1670
BF101628
BDE2D5AB
3E9B8911
3E596950
3F010361
3E855EA5
3F2EFE70
3D951083
3DDA9776
3EB61E99
3F41EF23
3D31CB6F
BEC42EA3
BE180219
BEE0062C
BF371C6D
3F32D770
3F5118D7
BE30A7E1
BF2A7155
BF309101
3EC9BE7F
3EA61EFE
BEB15959
BE3A8FCE
3E910024
3E2EB4A0
3F11DD73
3E8CCDC8
BDA98CC1
3ECED575
3E9E18B3
BF8F7A47
BEF36D6C
3CF4920E
BDEAF99B
BE8A538D
BD01CC6E
3F402362
3F00CB4E
BF319075
3F67C123
3F24713A
3E7BD259
BF212C04
BE66DA3E
BF68510C
3F0CBD14
BE6D654A
3DF17855
3EDCF451
BB266707
3EC4A3BC
BE04EC27
BE0A7AC1
BF4C6CBD
BEF9CED7
BF8AE794
3E94FBCA
3E67BBBD
3F0E8CF4
3E03681A
3F63004C
BDC8F480
3CD3D5A0
BDB36D73
BF0B10D7
3ECD8F67
3F90898D
3EA1FDBD
3E80C279
BF0671BB
BE674C54
3F1CAD9E
3F18A86A
BDE505F9
BDFB771F
BD642FC0
BE94EC6A
BE56659D
3AB51A29
BF231415
BEF918D6
BDA64F55
3E2128D3
3EED2C32
BC99B43C
3E1F418D
BE8A86F9
BD9CEACA
3EA14106
3EDEE74C
3EB6417A
BE8D1BD3
BF9195A6
BDDDB339
3F0C502C
3ED627D7
BD1F9A65
BCD13801
BE14DADA
BEB395CE
3E8BF413
3DB60392
BE9D65BC
BE4463BC
3EF66AF6
3CB2CFCC
3DF4750F
BF41CDFC
BF50E90C
BF79063E
BE09124F
BEAFE7F9
3DE0219B
3CF55FFE
BF1AA615
3F3AF7E9
3E18DB34
BEF1BD44
BE6AB3B8
3F28228A
BECEF8C8
BF214FD3
BEB489FE
BEF588D9
BD73D301
3E9E32E0
3F2FEC6D
3E5545D5
3DA20A31
3EE09E27
BF1DA84D
BCEB13E0
BEEDEF27
BD12E382
3F6D2409
BE7B325C
3ECEAAED
3E8BFD93
BEA42B69
3F212652
3EA7B693
BDD83AA4
BEF2078B
3ED48BA8
BEAA96E2
BDCF0704
3E77F8D8
BDAF14B3
BF0E2F80
BED1EB45
BF18FE58
BEEBCD03
BF109486
3D94DAC6
BCC500F1
3DE6CDD8
3DB7B16F
3EC4AED0
3E1CE718
3F2FDE2A
BE44E38E
BE2E28B8
BE4620DA
BB98FBE5
BF2A821C
3CD765AD
BF34FADC
3F8B92D1
3EF6964F
BC12C6AC
3E4A25E6
BEBE51D9
3D21BA65
3C8F76CB
BE9F134C
3F54590B
BD5D199C
3E5D81C9
BF4662FC
3E740896
BED901E2
BECD6342
BF5716E5
BD884F82
3F0E5F39
BDEB521B
BE2B21B0
BEAA6913
3F919CA9
3F427331
BE959AD2
BE1B0370
3D5A4AB4
BE74E288
BEB21BD5
3E0CEA9B
BE395909
BE3EBCE8
BF23C2D6
BDDE5017
BF0A7898
BEB8A570
3E400135
BD620FA5
3E0D3133
3E8BD4BC
BDE89E92
BDF7C3FF
BE08E7CA
3E8E95CC
3DB370E9
BE48739B
BF0686DA
3EAAA484
3E351874
3F546544
3E721F3E
3F75778C
3F479B5A
3F065633
BC69ACD7
BF1D18B6
BF257D2A
3F28B683
BEBCB7EF
BF368F31
BDFFC47E
3EDEC54F
3EF65820
3F25CFA4
3F7162E1
3F6AB17F
BF42C290
BEEA2FFE
BE775898
BEE331BB
3F3BC3BC
3F7864D4
BF1068BD
3E845AB4
3F2A71DE
3DE1FA69
3F0F3393
3EBD7E1D
3E13825E
3F09497A
3E2BD08A
3BAD9422
BF4420E8
3C445B0E
BC5D1E54
3EF18835
3E8A9733
BBC78713
3E707F9D
BF9978A2
BF36D270
BEA6199E
3E5FAE14
3CBD63A3
BD73CF70
BDD053F0
3E577136
3F1A6546
3F091137
BEBF7E65
BD534CE4
BF40C3C3
BF32E16E
3BEB4635
3F2D7458
3D72193D
BD54832A
3EBC2A24
3E0583A5
BCC68662
BD7C5F7C
BE559FD3
3D88745E
3DAC616D
3F07C570
BF01393C
BDE5E5BD
3EC54A03
BFA9323F
BE17E8C6
3F186F53
BE3B6383
3DE230AC
3EF5852A
3F186F0B
BF318F96
BF33AB40
3EADF9B7
BF7FEF74
BF1DF353
BE2834D2
3EDD3D09
3F0D9097
BF171FA5
BF3886E8
BE28B32D
3F46B21F
3DFD9473
3D8E96B7
BEE40A00
BEACAD2C
3EF99E0E
3E877D2A
BDB4053B
BDAC7B03
3EFFAE87
3E97A3CA
BED35448
BEA4DE1D
BF8F1163
3EFD440D
BF33482E
3E4BF37C
3F761F88
3F11955E
BF46C0C3
BF32F214
BE8003C6
BF7D9985
BDDD6F47
BD866B54
BEB406E8
3F8B5061
BD587E11
BE45FD5C
BF1B49A2
3D6702F4
BF7D5835
3ED2A4E5
BE762B14
BEEDA1B7
BE1297C0
BEC9ED4D
BF481DE6
3F1C6ED7
BF4B6FA5
3F5952AD
BE78E878
BE0F5A96
BF46341A
BE590900
3C953EF7
3DF87DA5
3EDE5566
3F828433
BF020A43
3F298B9C
3F221C84
BDA280C9
3E0A5D07
BEC9D200
BE84FBC0
BEC7DA33
BFBD6677
3EA7D7F8
3EC7C951
3EC22502
3F5D5D50
BFA4B557
BFA702EE
BE35AAFE
BE76A7CE
BEDA0E52
BF0300BD
3E604274
3F0158E5
3EE9823B
BC262604
BE78DA86
BF33A4AD
3F90A0E0
BF7A0A76
3F0DCE10
BEF1EA2F
BF112C71
3F707A1F
BDCFBF25
3F51A2AD
3EDE15C0
3C3A35F1
BEB3F9AF
3E84901A
BE230D8E
3F282604
3E3F28D5
3D08B978
3E23C7B4
3EB1BE61
BE77E308
3F31C61D
BFAEA5C4
3E6940AE
3F08D9F7
3F3A66D0
BF0A766C
BF618A8A
BEE7ACE6
BE8435F3
3F65D0C0
BED686EF
3ED7F470
BD832D6F
3F1A3A39
3ED548C8
3E46E8F3
3F60661E
3F8FB35D
3A3D7A49
3E95950A
BEF2493D
3E69281E
3F84E815
3D6EDE1F
3E565AA8
3E38F2AB
BF427150
B9A907CC
BEA50837
3D3C7AA5
BEF44A4B
BEF7C0CC
3FA3831D
3D1A072D
3EDE85F0
3F3A56C0
BF79C052
BF8D5653
BF8129EB
3F82DE20
BEBC1960
3E7FDE86
3F73B6FE
BCC3E964
BF53F178
3F37786D
BE4C3DBF
BF5EB84F
BEE21BB0
3EA1F5CF
3D9670BA
BF739480
3E0C547A
3D8CDE50
3F30E1A6
3F3951A8
BEA733E8
BE1D84E7
3E88A6F6
3F43B765
3EADE703
BF134980
3F23F3A4
3E8EC548
BFA0BF10
3B1EF523
BEFE1C66
BF0FD92B
3F23CF1B
3E8C5F8A
3E182ED8
BE86F8B7
BEE60F62
BF0182DF
3EE1D297
BEB5CEDE
BF4AAAB9
3EAD5301
3DC5DF80
BE1266C8
BF548D9B
BFA7CCB5
BE87AB5E
3F31E03F
3FB3807A
3F1A4B2A
BF1D8939
3F17E33C
BF6FF981
3E0D6DCF
3E0F5A2B
3EE54D94
BF217FF8
3E9A98A0
BE1232D3
BDFD7287
BBC252F6
BF0CCFB9
BF96C2DE
3EC8C3AA
3EF10166
3F02E2FA
3D52B7FE
BE033AA5
3F51EF22
3E937DAD
BF279C48
BEF1CB07
3F713EB9
3E51E9A9
BD87BF47
BE0B9BAA
3ED16491
BF17A71A
3ECBD8E3
3F482321
BE8D51AE
3F2D603D
BEA50FC4
BF0674E2
3F16F5B0
BDA754E6
3F566ED1
BF0FA52B
BF90EEA0
BF0FD6C5
3E41350B
3F12CDE0
BEBBE34C
BF8429BB
BEBD0898
3D15005D
3F281859
3F1B8D98
BEF61251
3F256AB7
BF3633CD
3E91242C
3EC3CAF1
3EBB4CF1
BEF39D80
3F389B3E
BD379512
3EA96799
3F200811
3F5370C0
3ECCB1C3
BF3D83A5
3E5FAE4A
3F62C124
3EBBC5FD
3F3F6B66
3E7CB436
BEB40F85
3DFB0440
3ECD8CA3
3DEF02B7
3DC49EBE
BF18C472
3CCF0C42
3EE369AC
3E845A7E
3DB92D3B
3CC43BCF
BE852F3C
BCF87CE9
3E9A8D7C
3F95051B
BF3708C7
BE595AB6
3F222CD7
BEE4109F
3E639D1B
BF03BEB5
BF9BB489
BEFAA989
BE978D42
3DB2F00A
BE38DC77
BF7E5B06
3F018D10
3E82F046
3F170D2D
3F04E7E6
3E39ED1E
3EA90D03
3EC9C78E
3EEFA8EA
3E0AD2B4
BE942B08
3EEC1CE3
BF41BA79
BE10FA2A
BF85AF2D
BDF3FBE6
3F651514
3F46795C
3EB939C6
3E7A78E5
3DA9D3D9
BED5C1B2
3E6C5C28
BF01DDBA
BEE913A2
3E0A442D
3E4B8D2B
3F004FE7
BF117BF0
3ED752C0
3EC26B9B
BF14247F
BE614566
3EC2D46C
3E5D63BE
3F41FC64
3F3F0CD6
BEBBB0B4
BDA04FA4
BF8C8EBA
3E1F9599
BE579FED
3EE127E2
BE255A7D
3E8864F4
3ED8676A
BEBF2F55
BCBD6C72
3E6E6CD3
3E1E5EE0
BF580B5D
BCD0232E
3F1896FA
BF1C3D05
BEFC419D
BF229844
BF2C47EA
3ED487A2
BE04D7EA
BE91B8F4
BF21029D
3E60339E
BD9B05FB
3D2048C5
BF1B7D99
3F6F6AE8
BDBD09FC
3DABE09C
3F56E450
BEFE8AD7
3F17BDF1
3E94F2C9
BF307842
3F57FABE
BE8A4512
3C6CA90B
3F4AF22D
3CF9FDBD
3EEDB809
3F921529
3F4D5033
3F97E856
BF7617D9
3E0770C4
BEFB7C7B
3E28D5DB
3EAFB0F3
BDFE7A09
3EC47347
BEC7950C
BB941BAB
3F1FD91E
3ECE1D32
3E315C8C
3EB0503B
BF043F05
BE692AD1
3E839947
BF538CE1
3ED180E8
BF566764
3F91081B
3E94F2D3
3E9CBC1D
3EB68CB6
BD466179
3EA778E7
3E44EA0E
BF715236
3F1CD549
3E4F5E49
BEACCF0B
BBC1292B
BCEE4F9F
BE84D307
BF0BAE7C
BF0E4ECF
3E1A15FD
BD8A70D2
3F7940E1
3F6C66ED
BEE8BFDD
3E8EC69B
3F1FCA03
BD50196E
BE7EFBD9
BEEC5A9C
3EC58757
BC1F2636
BE210AB5
BD137FF5
BEDA3CB5
3E68208F
BECBB946
3C108E58
BEABC434
3F5DF33A
3E80D2B6
BEC82F83
BEAFF77E
3EF7B14E
BF0DB554
3E470DDC
3DFFA8A7
3D3B4627
BEF373FA
3E05CE69
3EAD2773
3EBE7708
BE60B107
BEAD621B
3F16282B
3D505476
BF8711E8
BE8695ED
BE717375
BEFE7158
BDAAF229
BFB63F96
3E468B13
3F57F7CB
3F143003
3E5213E4
3E023909
3F19B7D2
BF729451
BF6F394B
3F29DFE0
BF42A11B
BDF3BD16
3F2C33A9
BE4160F3
3EA603E3
3E72451F
BF179C15
BF0325E2
3F6F00ED
3F6C4C76
3F023DD9
BE1FF64D
BF8BED43
BE8BE92B
BEBA8881
3F4A88FC
BF370895
3F2A8B8C
BE57A439
BECF28F3
3E345D56
BF450C5D
3F503FD3
3F2BBD50
3F7BB14E
3DC5BF1A
3EF32D86
BEB21706
BECB12FC
3E8FA7D4
BF80E436
3F06E216
3E3031B4
3F4DC5CE
3E270D63
3CDE7B15
3EDCC466
BDA3B221
3E246A2E
3F21322A
BF0897EB
3EB9B18C
3DFD7668
BE4E288F
3E33C00D
3E1A5C4B
BF1FA75B
BD976676
BE78FC00
3E41DDF8
3EE552F4
3E0C833E
BE81B4E4
BDCFA001
BE9D978E
BF0BFE91
3EC0FD3F
3F2A0D33
BDC62A01
3EA40AD4
3E370AE5
BE0D360D
3EFB166B
BDE3577B
3F5D51A6
BEB9BE54
3E0AE119
3EA0CB52
3A666CB1
3EA71AB7
3F3A7F07
3F021C29
BF02B497
BE86E2DE
BEC14F92
3E6FECF8
BEB4D241
BE0DDEF3
3DC47835
3E96D510
3E2D2D45
BE1D1E4D
3F0B7CE5
3F38D07D
3DE552FE
BEB58337
BEB8854A
BDC1A7F0
BE7D41E0
BF3F7663
BE771950
BE944F5D
BF3B5971
BE7A253E
3E226960
BF02C720
3EFC854A
BDC960ED
3FA9A82A
BEAFAD05
BFB0BA07
3E7691D0
BED4C3F1
BF96DE46
BE433659
3E96EE8F
BE69AB02
BEFF7886
BEAD0BC8
BDAF548F
3EF4D82D
BF4D63CA
3EE1FB97
3E87C782
BED857F6
BF0F7136
BF2CD97A
BF2CDA1E
3F7EE474
BD194764
BF4415A6
BF7584F3
3E979AE7
BDB8423E
BEB92411
BEA50C91
3E8B1236
BF4CCF65
BF6802CC
3D2CA9FD
3EF976EE
3F0783AF
3EA244E3
3F2673D9
BF135F19
BF0E822B
BECE86EB
BF40B2B7
BF2661F7
3F607AE6
3E9C7747
BF54D4C2
BF3DB5B7
BF8F57CE
3F4A3017
BF3C8DBF
3F38B14A
3EFA0363
3F533D5A
3EC034ED
3EC9429F
3EB4FBD4
BF168226
3F65BC0A
BF43EF0F
3D0753E7
3F7275A5
3F4247F9
3EE7213E
3EAD0D7C

