3F2C05C9
BE7F920F
BED3C42A
BFB8C197
BF13DFF6
BF9A7E94
BFBF3F98
3F355675
BE239991
3F2840D9
3FE8B257
C01DA374
BFACF39E
3F2D4909
BF428A95
3FBC1E96
3F9F1D98
BFAB4C97
BF794B9E
BF39F5C0
BFA911AD
3EC330D4
C00AD8AD
BFC3DB6D
C0045638
3ECAC28B
3FA04207
3EE236E0
BF5C7340
BF52787A
BEB4E94F
3F9B1057
BF926C57
3DEA4F44
BFBC66ED
3ECC4DB3
BECDDAC8
3F020E26
3F8027DB
BFF1598C
BE1D52F0
BF9D6BEE
BFCFE2C7
BFB4C1EB
BE9776B4
C010C5F2
3FDA06DE
C00437D4
3EF9DDE7
BDD94DAF
3F7164D8
3F6113D9
3E2346D6
3F87AE22
BF0EB58B
BFD57E94
3EE2B547
3FFAFC8D
3F0508FD
3F3A35BF
BF3BDEF5
BEF79C19
3E5996CC
BFEC167B
3CFC074D
BF280E61
BF1A3ED4
3FCD0B72
BF830C00
3ED8D4A7
C033A37E
3DE2211A
BFB5ED14
3FE82C3F
BEAA6299
BFCB8D32
BE3EE7B0
3EABA055
BFAF08AC
C00F2F91
BEB21FD5
3EA371D7
BFA6425D
BED18630
3F79FCD4
C01C2AC3
BF13992D
40168280
3F9246A0
3E92D422
3EDC9713
3F9A0C5A
BFDC8F83
3F3CF09A
BFAAE5E0
BE24D50F
3F9B002C
BF513DD9
3F4B101E
C00379B9
3DF2508D
BF7FFF2D
3F9A9399
3F05FD98
BFFA83D0
3F7084E3
C011C44C
3FA55391
BF81A88C
C03CB2EB
BF5A7E31
BEEEB504
3FF3D2AE
BF8A187E
3E63965E
BEC24BA9
BF5CD559
BFAB8BC5
3F3D3181
BF2FE3C3
3FBF1D71
C0001347
BF55A26D
3F4173E7
3ECA95BE
BFA6BE7F
3C9DF117
3DCC5429
C02EA7AD
BF560845
3C7B0E29
C01352A6
3F993625
3E8882CC
BFFAFE8C
3E948AEC
3EA7A715
BFD20435
3F1AB3E7
3E5FF8F3
BD8D5E3D
BEF326AB
BEB47B3F
3F27DB14
BF02B4FA
BFA1D01A
BFF544E1
3FE16B58
BFB438F4
BFC6E67D
3FFA1D3C
3FCDFB4E
BF25EC5F
3FCA1E01
BF0688AF
BF11D687
BEA77F1E
401FBB09
BEF00248
BFE708F5
3F31745D
BF3C039E
3CC9E237
BF82ABCD
3BED7D46
BFA58350
3BE76930
BE879DE1
BF81F24A
402CCF4D
BEE8A0DA
3FC3CF0D
3EA266B4
3F59DDBD
BE38DADD
BF0D3BF1
C054E2C9
BECBF262
3E5C1326
BF2DE208
3FA32330
3F36D37A
BF8A49F8
C002E00D
C01CA074
3D0971B4
C01F0D80
C0043AF9
3FBF747E
3F811511
3F17EAD8
BF56973B
3F966032
BFA13190
BE8D7F48
3F890191
3D7621FB
3EF63DF4
BFA93265
3F69D76D
3F47209D
BF933930
BFDAFD1C
BDFA9B9A
BEB654CF
3F847648
3FF8ED82
3FAB2216
3F2B7A3C
BF002DEC
BF2FBB93
BF093722
3F27A5A4
BE566814
3F0CE0CD
C03E0DE2
BF8B0AE4
BFB16047
BE9CB90C
BDBA84D9
C004B5C7
3F906C9A
BFAD2FAD
C01A2C35
C017C1C9
BEB63857
C041CD0E
3EA2B92F
3F56E00B
BEA0EC78
3F868FD0
BF6D9118
C0064297
BFEDA42C
3F208183
BE735844
3F0E6D0C
3ED6780B
BEBE3055
3FC4BC9F
BFD9FDC1
BFB04499
3FA6A035
BEBEFCB7
BEAFAFFE
BEE5F1EE
BEFF4A16
3F070ACF
3F2ACB72
BFD655EF
3FB02E99
BF0C95A8
3F21FB72
BEB5E212
BF91D65D
3FEA8860
3F1B953E
BF092176
3F91FFA0
3FD9932E
C02D9AB9
C007E0D5
3F60D1FE
BFCD1FD0
3F77C273
BFFF86A3
3EDD780C
3F9C0BB6
BEAC1122
BE9A1F55
BFCEC9AF
BF02BE6E
3F75B5E8
BF4E991B
BEDA7290
3F7814B7
3DE8315D
BF6CB535
3F35B33B
3F5A1F72
C001123E
3ED0E0CA
C0288E1D
BFC588AA
C01FE12A
BE9800FC
BF144202
3FBB64B1
BFB774F0
BF3A94DA
3F9BD4D0
BF62D343
BF951B05
3F89F106
BEED15D2
BFDEDC18
4006EAF3
BFBEAABA
3F43C350
3EAAA3DF
BEAE79A4
BF098948
BFA177ED
C022159C
3F6D7363
3F3CB285
C0205D66
BF20C365
BF7FC582
3FA04AFC
BFD6092F
BF4ACBDA
3FC0455D
C003E3BE
BECE58A0
BF894F81
3F1DE975
C0091E47
3F876D3B
C0039446

