3E2D4201
3D186A5A
BE11AF33
BE3A0F97
3E19E881
BD9FBA96
BC3BF1B3
3CBC734E
BE6A6586
3E6FFF15
BD01BBDD
BCBCD96F
BB9C4A4E
3E13D48D
3CBFB87D
3CDF9B3B
BE21F52B
BD800764
3D98FACB
BC7360B5
3E293610
BC5EACC9
BCCD9804
BDDEA6F7
BE7FA7AF
3DCBAFF4
3D046B85
3DB25D07
BB576252
3E5CE670
3CA9FADB
3D3895A8

