3D0434FE
BE4629D8
BE54F795
3DA869E1
3DF4ACCB
3E0BA725
3D82A4C0
3D6D4040
BEB03394
BE075AFB
BE910E96
3DAB31D0
BE2F046C
3DAA5A47
BE7F9110
BE61AED5
BD70302F
3D0B4C14
BEF253B6
BE7E5FC5
BE143D47
BE25F945
BDA121D4
3E6730CD
3D0E98CF
3D8A5A54
3DB0C88A
BD998A15
BEB5859D
3E25E29F
BCF2EB45
3F026619
3DB4CBBA
3DCB8F58
BE077ACE
3CC04EA5
BCB59833
BE818384
3E7F47A2
BDEF50F1
BE005074
3E6012D9
3ED5AA67
BDABC7EA
BE95CC78
BE01B047
3E044E8D
3E754987
3E9FC294
BCB0908C
3E3309DC
3D4E5761
3E90DC8B
3D71F17F
BD9A317C
3DE061C8
3DB31020
3DD0D6A5
3D2F1638
BD78A7CC
BADCBD05
3D18C056
BEABFD1A
3E21177F

